{
    "vocab": {
        "\u0010": 0,
        "!": 1,
        "\"": 2,
        "#": 3,
        "$": 4,
        "%": 5,
        "&": 6,
        "'": 7,
        "(": 8,
        ")": 9,
        "*": 10,
        "+": 11,
        ",": 12,
        "-": 13,
        ".": 14,
        "/": 15,
        "0": 16,
        "1": 17,
        "2": 18,
        "3": 19,
        "4": 20,
        "5": 21,
        "6": 22,
        "7": 23,
        "8": 24,
        "9": 25,
        ":": 26,
        ";": 27,
        "<": 28,
        "=": 29,
        ">": 30,
        "?": 31,
        "@": 32,
        "[": 33,
        "\\": 34,
        "]": 35,
        "^": 36,
        "_": 37,
        "`": 38,
        "a": 39,
        "b": 40,
        "c": 41,
        "d": 42,
        "e": 43,
        "f": 44,
        "g": 45,
        "h": 46,
        "i": 47,
        "j": 48,
        "k": 49,
        "l": 50,
        "m": 51,
        "n": 52,
        "o": 53,
        "p": 54,
        "q": 55,
        "r": 56,
        "s": 57,
        "t": 58,
        "u": 59,
        "v": 60,
        "w": 61,
        "x": 62,
        "y": 63,
        "z": 64,
        "{": 65,
        "|": 66,
        "}": 67,
        "~": 68,
        "": 69,
        "": 70,
        "": 71,
        "": 72,
        "": 73,
        "": 74,
        "¡": 75,
        "£": 76,
        "´": 77,
        "·": 78,
        "½": 79,
        "¾": 80,
        "ß": 81,
        "à": 82,
        "á": 83,
        "â": 84,
        "ã": 85,
        "ä": 86,
        "å": 87,
        "æ": 88,
        "ç": 89,
        "è": 90,
        "é": 91,
        "ê": 92,
        "ë": 93,
        "í": 94,
        "ï": 95,
        "ð": 96,
        "ñ": 97,
        "ó": 98,
        "ô": 99,
        "ö": 100,
        "ø": 101,
        "ù": 102,
        "ú": 103,
        "û": 104,
        "ü": 105,
        "–": 106,
        "‘": 107,
        "’": 108,
        "“": 109,
        "”": 110,
        "₤": 111,
        "": 112,
        "th": 113,
        "in": 114,
        "the": 115,
        "an": 116,
        "er": 117,
        "is": 118,
        "re": 119,
        "to": 120,
        "on": 121,
        "en": 122,
        "at": 123,
        "es": 124,
        "as": 125,
        "ing": 126,
        "ou": 127,
        "al": 128,
        "it": 129,
        "or": 130,
        "and": 131,
        "ed": 132,
        "ar": 133,
        "of": 134,
        "ly": 135,
        "br": 136,
        "ch": 137,
        "il": 138,
        "om": 139,
        "st": 140,
        "le": 141,
        "ac": 142,
        "<br": 143,
        "<br/": 144,
        "<br/>": 145,
        "se": 146,
        "wh": 147,
        "mo": 148,
        "be": 149,
        "ic": 150,
        "ad": 151,
        "this": 152,
        "vi": 153,
        "ow": 154,
        "that": 155,
        "ot": 156,
        "ve": 157,
        "ver": 158,
        "ut": 159,
        "li": 160,
        "am": 161,
        "ter": 162,
        "sh": 163,
        "for": 164,
        "ab": 165,
        "id": 166,
        "was": 167,
        "im": 168,
        "gh": 169,
        "movi": 170,
        "'s": 171,
        "ay": 172,
        "ent": 173,
        "ion": 174,
        "el": 175,
        "<br/><br/>": 176,
        "un": 177,
        "ith": 178,
        "ap": 179,
        "oo": 180,
        "ld": 181,
        "ke": 182,
        "are": 183,
        "ec": 184,
        "fil": 185,
        "you": 186,
        "film": 187,
        ".<br/><br/>": 188,
        "movie": 189,
        "et": 190,
        "ag": 191,
        "with": 192,
        "ri": 193,
        "but": 194,
        "ir": 195,
        "em": 196,
        "ro": 197,
        "all": 198,
        "su": 199,
        ".the": 200,
        "one": 201,
        "'t": 202,
        "sto": 203,
        "if": 204,
        "pl": 205,
        "ally": 206,
        "ther": 207,
        "sc": 208,
        "ould": 209,
        "out": 210,
        "so": 211,
        "..": 212,
        "ha": 213,
        "po": 214,
        "ul": 215,
        "ome": 216,
        "ofthe": 217,
        "not": 218,
        "act": 219,
        "no": 220,
        "ce": 221,
        "ere": 222,
        "ur": 223,
        "est": 224,
        "ust": 225,
        "thing": 226,
        "ever": 227,
        ",and": 228,
        "ill": 229,
        "ma": 230,
        "ry": 231,
        "us": 232,
        "ex": 233,
        "he": 234,
        "inthe": 235,
        "tof": 236,
        "end": 237,
        "any": 238,
        "fr": 239,
        "de": 240,
        "ess": 241,
        "ght": 242,
        "com": 243,
        ",the": 244,
        "op": 245,
        "ven": 246,
        "ol": 247,
        "ire": 248,
        "by": 249,
        "au": 250,
        "wor": 251,
        "his": 252,
        "ant": 253,
        "ain": 254,
        "ew": 255,
        "ood": 256,
        "af": 257,
        "ast": 258,
        "ig": 259,
        "pe": 260,
        "just": 261,
        "like": 262,
        "con": 263,
        "up": 264,
        "do": 265,
        "they": 266,
        "some": 267,
        ",but": 268,
        "tor": 269,
        "her": 270,
        "there": 271,
        "ist": 272,
        "aw": 273,
        "n't": 274,
        "have": 275,
        "oun": 276,
        "who": 277,
        "from": 278,
        "ers": 279,
        "ous": 280,
        "ack": 281,
        "art": 282,
        "qu": 283,
        "get": 284,
        "go": 285,
        "ell": 286,
        "pre": 287,
        "ind": 288,
        "char": 289,
        "pro": 290,
        "atch": 291,
        "lo": 292,
        "what": 293,
        "ough": 294,
        "me": 295,
        "sp": 296,
        "king": 297,
        "man": 298,
        "about": 299,
        "it's": 300,
        "tr": 301,
        "bo": 302,
        "thismovie": 303,
        "ation": 304,
        "tim": 305,
        "ard": 306,
        "s.": 307,
        "ate": 308,
        "my": 309,
        "edto": 310,
        "ect": 311,
        "other": 312,
        "per": 313,
        "acter": 314,
        "character": 315,
        "watch": 316,
        "them": 317,
        "would": 318,
        "ich": 319,
        "we": 320,
        "ves": 321,
        "s,": 322,
        "um": 323,
        "ne": 324,
        "ive": 325,
        "int": 326,
        "now": 327,
        "bad": 328,
        "pt": 329,
        "ss": 330,
        "when": 331,
        "even": 332,
        "bl": 333,
        "ak": 334,
        "more": 335,
        "ook": 336,
        "der": 337,
        "ong": 338,
        "ble": 339,
        "ity": 340,
        "ound": 341,
        "how": 342,
        "has": 343,
        "way": 344,
        "ure": 345,
        "very": 346,
        "bec": 347,
        "gr": 348,
        "ore": 349,
        "able": 350,
        "te": 351,
        "ge": 352,
        "uc": 353,
        "jo": 354,
        "di": 355,
        "tha": 356,
        "i'": 357,
        "which": 358,
        "gu": 359,
        "fe": 360,
        "ish": 361,
        "than": 362,
        "ight": 363,
        "our": 364,
        "ton": 365,
        "itt": 366,
        "sof": 367,
        "uch": 368,
        "see": 369,
        "tothe": 370,
        "over": 371,
        "ple": 372,
        "only": 373,
        "good": 374,
        "ep": 375,
        "ful": 376,
        "on't": 377,
        "sel": 378,
        "bet": 379,
        "thisfilm": 380,
        "...": 381,
        "ick": 382,
        "own": 383,
        "e.": 384,
        "can": 385,
        "sand": 386,
        "had": 387,
        "ud": 388,
        "ause": 389,
        "ment": 390,
        "off": 391,
        "then": 392,
        "ies": 393,
        "been": 394,
        "thef": 395,
        "show": 396,
        "wr": 397,
        "ear": 398,
        "scen": 399,
        "ef": 400,
        "irec": 401,
        "itwas": 402,
        "cr": 403,
        "ink": 404,
        "story": 405,
        "movies": 406,
        "pr": 407,
        "thr": 408,
        "ade": 409,
        "because": 410,
        "ingto": 411,
        "ah": 412,
        "really": 413,
        "ame": 414,
        "reat": 415,
        "sin": 416,
        "app": 417,
        "most": 418,
        "ial": 419,
        "cl": 420,
        "make": 421,
        "tion": 422,
        "ty": 423,
        "thisis": 424,
        "som": 425,
        "thes": 426,
        "know": 427,
        "ople": 428,
        "ine": 429,
        "play": 430,
        "ence": 431,
        "av": 432,
        "ber": 433,
        "people": 434,
        "ach": 435,
        "ass": 436,
        "she": 437,
        "does": 438,
        "dis": 439,
        "every": 440,
        "itis": 441,
        "its": 442,
        "ingthe": 443,
        "direc": 444,
        "after": 445,
        "unn": 446,
        "ide": 447,
        "did": 448,
        "well": 449,
        "inter": 450,
        "tw": 451,
        "ite": 452,
        "thec": 453,
        "were": 454,
        "acting": 455,
        "him": 456,
        "self": 457,
        "inal": 458,
        "ifyou": 459,
        "edby": 460,
        "plot": 461,
        "look": 462,
        "tobe": 463,
        "age": 464,
        "low": 465,
        "seem": 466,
        "kes": 467,
        "ang": 468,
        "irst": 469,
        "time": 470,
        "ash": 471,
        "point": 472,
        "ting": 473,
        "actor": 474,
        "ath": 475,
        "andthe": 476,
        "could": 477,
        "will": 478,
        "where": 479,
        "min": 480,
        "your": 481,
        "say": 482,
        "kill": 483,
        "ice": 484,
        "why": 485,
        "fore": 486,
        "old": 487,
        "ical": 488,
        "less": 489,
        "ican": 490,
        "ary": 491,
        "dr": 492,
        "ake": 493,
        "their": 494,
        "back": 495,
        "thefilm": 496,
        "much": 497,
        ".i": 498,
        "ev": 499,
        "better": 500,
        "les": 501,
        "ious": 502,
        "ck": 503,
        "att": 504,
        "cre": 505,
        "son": 506,
        "des": 507,
        "into": 508,
        "bu": 509,
        "ave": 510,
        "por": 511,
        "want": 512,
        "ren": 513,
        "ated": 514,
        "view": 515,
        "str": 516,
        "sare": 517,
        "ser": 518,
        "igh": 519,
        "urn": 520,
        "made": 521,
        "work": 522,
        "ving": 523,
        "!!": 524,
        "fl": 525,
        "alo": 526,
        "though": 527,
        "through": 528,
        "theb": 529,
        "hor": 530,
        "part": 531,
        "being": 532,
        "ually": 533,
        "too": 534,
        "ip": 535,
        "augh": 536,
        "ace": 537,
        "themovie": 538,
        "fa": 539,
        "don't": 540,
        "ian": 541,
        "iz": 542,
        "--": 543,
        "tain": 544,
        "sup": 545,
        "tal": 546,
        "gi": 547,
        "ved": 548,
        "dy": 549,
        "also": 550,
        "ph": 551,
        "ater": 552,
        "ens": 553,
        "stof": 554,
        "onthe": 555,
        "duc": 556,
        ".there": 557,
        "fect": 558,
        "amer": 559,
        "whil": 560,
        "mis": 561,
        "unny": 562,
        "ason": 563,
        "co": 564,
        "ance": 565,
        "real": 566,
        "forthe": 567,
        "ted": 568,
        "pos": 569,
        "it.": 570,
        "here": 571,
        "irl": 572,
        "esto": 573,
        "wer": 574,
        "ll": 575,
        "ought": 576,
        "nothing": 577,
        "atthe": 578,
        "interest": 579,
        "es,": 580,
        "may": 581,
        "withthe": 582,
        "ing.": 583,
        "iwas": 584,
        "ittle": 585,
        "ror": 586,
        "year": 587,
        "i'm": 588,
        "something": 589,
        "ase": 590,
        "orig": 591,
        "beli": 592,
        "under": 593,
        "red": 594,
        "fer": 595,
        "ob": 596,
        "ste": 597,
        "think": 598,
        "again": 599,
        "ably": 600,
        "10": 601,
        "ing,": 602,
        "az": 603,
        "outof": 604,
        "inc": 605,
        "ark": 606,
        "ript": 607,
        "funny": 608,
        "should": 609,
        "read": 610,
        "y,": 611,
        "tho": 612,
        "anc": 613,
        "ily": 614,
        "actually": 615,
        "oneofthe": 616,
        "19": 617,
        "vel": 618,
        ".but": 619,
        "director": 620,
        "original": 621,
        "riend": 622,
        "ense": 623,
        ".<br/><br/>the": 624,
        "let": 625,
        "ict": 626,
        "girl": 627,
        "guy": 628,
        "never": 629,
        "day": 630,
        "down": 631,
        "minut": 632,
        "gen": 633,
        "ise": 634,
        "scre": 635,
        "sex": 636,
        "ild": 637,
        "such": 638,
        "ie": 639,
        "fort": 640,
        "car": 641,
        "pret": 642,
        "sthat": 643,
        "another": 644,
        "life": 645,
        "pect": 646,
        ").": 647,
        "ato": 648,
        "before": 649,
        "ue": 650,
        "fin": 651,
        "star": 652,
        "enc": 653,
        "produc": 654,
        "got": 655,
        "first": 656,
        "rible": 657,
        "**": 658,
        "ed.": 659,
        "bor": 660,
        "sur": 661,
        "ans": 662,
        "ating": 663,
        "set": 664,
        "es.": 665,
        "stand": 666,
        "try": 667,
        "great": 668,
        "'re": 669,
        "form": 670,
        "watching": 671,
        "script": 672,
        "ext": 673,
        "worst": 674,
        "thave": 675,
        "friend": 676,
        "oc": 677,
        "sor": 678,
        "icul": 679,
        "writ": 680,
        "gl": 681,
        "ed,": 682,
        "esc": 683,
        "top": 684,
        "fromthe": 685,
        "appe": 686,
        "makes": 687,
        "ins": 688,
        "aid": 689,
        "action": 690,
        "par": 691,
        "od": 692,
        "ly,": 693,
        "comm": 694,
        "sthe": 695,
        "havebeen": 696,
        "ingand": 697,
        "war": 698,
        "still": 699,
        "many": 700,
        "ool": 701,
        "scenes": 702,
        ".it": 703,
        "ime": 704,
        "feel": 705,
        "wom": 706,
        "scene": 707,
        "right": 708,
        "that's": 709,
        "amp": 710,
        "ann": 711,
        "agood": 712,
        "kid": 713,
        "anything": 714,
        "bas": 715,
        "thel": 716,
        "che": 717,
        "ug": 718,
        "sy": 719,
        "sl": 720,
        "ra": 721,
        "seen": 722,
        "inv": 723,
        "cont": 724,
        "ond": 725,
        "een": 726,
        "ual": 727,
        "those": 728,
        "ically": 729,
        "least": 730,
        "kind": 731,
        "new": 732,
        "bes": 733,
        "enough": 734,
        "erson": 735,
        "however": 736,
        "vers": 737,
        "around": 738,
        "allthe": 739,
        "imp": 740,
        "two": 741,
        "wood": 742,
        "poor": 743,
        "mus": 744,
        "turn": 745,
        "edin": 746,
        ",\"": 747,
        "doesn't": 748,
        "ub": 749,
        ".and": 750,
        "away": 751,
        "dec": 752,
        "while": 753,
        "tosee": 754,
        "mar": 755,
        "pretty": 756,
        "amovie": 757,
        "cept": 758,
        "appen": 759,
        "effect": 760,
        "omb": 761,
        "ster": 762,
        "characters": 763,
        "ail": 764,
        "y.": 765,
        "edit": 766,
        "plete": 767,
        "ofc": 768,
        "start": 769,
        "head": 770,
        "upid": 771,
        "put": 772,
        "sol": 773,
        "edand": 774,
        "vious": 775,
        "asthe": 776,
        "alf": 777,
        "making": 778,
        "give": 779,
        "),": 780,
        "akes": 781,
        "thatthe": 782,
        "isthe": 783,
        "lear": 784,
        "illi": 785,
        "love": 786,
        "00": 787,
        "don": 788,
        "acc": 789,
        "expl": 790,
        "slike": 791,
        "lin": 792,
        "use": 793,
        "laugh": 794,
        "ible": 795,
        "ff": 796,
        ".\"": 797,
        "expect": 798,
        "minutes": 799,
        "care": 800,
        "mem": 801,
        "cast": 802,
        "thisone": 803,
        "joy": 804,
        ",it": 805,
        "empt": 806,
        "aph": 807,
        "comed": 808,
        "ign": 809,
        "ree": 810,
        "ither": 811,
        "oot": 812,
        "afew": 813,
        "light": 814,
        ".it's": 815,
        "sure": 816,
        "idon't": 817,
        "aren": 818,
        "add": 819,
        "edo": 820,
        "yand": 821,
        "world": 822,
        "vis": 823,
        "awful": 824,
        "sit": 825,
        "edon": 826,
        "screen": 827,
        "inn": 828,
        "bar": 829,
        ".they": 830,
        ",as": 831,
        "fam": 832,
        "sm": 833,
        "lead": 834,
        "poss": 835,
        "sid": 836,
        "stead": 837,
        "mind": 838,
        ",which": 839,
        "main": 840,
        "ger": 841,
        "enter": 842,
        "eve": 843,
        "esp": 844,
        "forman": 845,
        "best": 846,
        "audi": 847,
        ",there": 848,
        "bud": 849,
        "hand": 850,
        "hel": 851,
        "body": 852,
        "tory": 853,
        "thereis": 854,
        ",i": 855,
        "ouse": 856,
        "led": 857,
        "thatis": 858,
        "ward": 859,
        "sub": 860,
        "ute": 861,
        "atleast": 862,
        "whole": 863,
        "come": 864,
        "uck": 865,
        "loo": 866,
        "tri": 867,
        "almost": 868,
        "ately": 869,
        "thismovieis": 870,
        "sch": 871,
        "pi": 872,
        "stupid": 873,
        "atall": 874,
        "comp": 875,
        "beg": 876,
        "press": 877,
        "ress": 878,
        "mad": 879,
        "performan": 880,
        "ithink": 881,
        "far": 882,
        "comes": 883,
        "prob": 884,
        "long": 885,
        "horror": 886,
        "hard": 887,
        "worth": 888,
        "air": 889,
        "ten": 890,
        "cer": 891,
        "thiswas": 892,
        "oney": 893,
        "inem": 894,
        "hop": 895,
        "ok": 896,
        "instead": 897,
        "s\"": 898,
        "dialo": 899,
        "onder": 900,
        "without": 901,
        "suppos": 902,
        "enjoy": 903,
        "maybe": 904,
        ",they": 905,
        "ially": 906,
        "films": 907,
        "take": 908,
        "little": 909,
        "val": 910,
        "find": 911,
        "call": 912,
        "didn't": 913,
        "whow": 914,
        "probably": 915,
        "appoint": 916,
        ",you": 917,
        "high": 918,
        "ib": 919,
        "appear": 920,
        "ese": 921,
        "thet": 922,
        "big": 923,
        "ature": 924,
        "ult": 925,
        "land": 926,
        "inthis": 927,
        "ru": 928,
        "men": 929,
        "ness": 930,
        "chr": 931,
        "mon": 932,
        "hour": 933,
        "ank": 934,
        "ane": 935,
        "og": 936,
        "wal": 937,
        "anim": 938,
        "betwe": 939,
        "proble": 940,
        "line": 941,
        "shot": 942,
        "reason": 943,
        "boy": 944,
        "cond": 945,
        "spec": 946,
        "s.<br/><br/>": 947,
        "pol": 948,
        "sing": 949,
        "sent": 950,
        "oment": 951,
        "afilm": 952,
        "ort": 953,
        "exc": 954,
        "eof": 955,
        ",is": 956,
        "esh": 957,
        "towatch": 958,
        "ism": 959,
        "edthe": 960,
        "fortun": 961,
        "sequ": 962,
        "youn": 963,
        "....": 964,
        "graph": 965,
        "vide": 966,
        "complete": 967,
        "interesting": 968,
        "unt": 969,
        "os": 970,
        "ending": 971,
        "iffer": 972,
        "person": 973,
        "veseen": 974,
        "esand": 975,
        "arent": 976,
        "ention": 977,
        "else": 978,
        "n'": 979,
        "oh": 980,
        "ourse": 981,
        "ret": 982,
        "lik": 983,
        "ci": 984,
        "er,": 985,
        "hol": 986,
        "lef": 987,
        "attempt": 988,
        "cor": 989,
        "thefirst": 990,
        "between": 991,
        "kindof": 992,
        "ihave": 993,
        "s(": 994,
        "anyone": 995,
        "idid": 996,
        "he's": 997,
        ")and": 998,
        "believe": 999,
        "imply": 1000,
        "ask": 1001,
        "waste": 1002,
        "atter": 1003,
        "looking": 1004,
        "aking": 1005,
        "acom": 1006,
        "lack": 1007,
        "peri": 1008,
        "icould": 1009,
        "child": 1010,
        "port": 1011,
        "along": 1012,
        "mor": 1013,
        ",or": 1014,
        "col": 1015,
        "edi": 1016,
        "ife": 1017,
        "ject": 1018,
        "heis": 1019,
        "fact": 1020,
        "ition": 1021,
        "american": 1022,
        "worse": 1023,
        "budget": 1024,
        "keep": 1025,
        "pris": 1026,
        "ull": 1027,
        ",it's": 1028,
        "going": 1029,
        "mak": 1030,
        "softhe": 1031,
        "hu": 1032,
        "tomake": 1033,
        "version": 1034,
        "mostof": 1035,
        "joh": 1036,
        "bre": 1037,
        "fail": 1038,
        ",andthe": 1039,
        "rid": 1040,
        "ler": 1041,
        "avery": 1042,
        "idea": 1043,
        "iss": 1044,
        "ons": 1045,
        "someone": 1046,
        "second": 1047,
        "mer": 1048,
        "black": 1049,
        "thereare": 1050,
        "wouldbe": 1051,
        "ative": 1052,
        "bythe": 1053,
        "word": 1054,
        "piec": 1055,
        "umb": 1056,
        "itch": 1057,
        "goingto": 1058,
        "haven": 1059,
        "ality": 1060,
        "sul": 1061,
        "zomb": 1062,
        "isn't": 1063,
        "aut": 1064,
        "den": 1065,
        "ner": 1066,
        "gets": 1067,
        "fun": 1068,
        "cent": 1069,
        "ying": 1070,
        "alotof": 1071,
        "everything": 1072,
        "john": 1073,
        "arly": 1074,
        "fol": 1075,
        "night": 1076,
        "need": 1077,
        "fall": 1078,
        "tot": 1079,
        "iso": 1080,
        "blood": 1081,
        "music": 1082,
        "imag": 1083,
        "ared": 1084,
        "a\"": 1085,
        ",in": 1086,
        "edtobe": 1087,
        "ene": 1088,
        "stu": 1089,
        "tom": 1090,
        "movie.": 1091,
        "gether": 1092,
        "there's": 1093,
        "anno": 1094,
        "problem": 1095,
        "production": 1096,
        "sound": 1097,
        "oneof": 1098,
        "leas": 1099,
        "lec": 1100,
        "sher": 1101,
        "wrong": 1102,
        "hewas": 1103,
        "both": 1104,
        "ale": 1105,
        "sat": 1106,
        "goes": 1107,
        "obvious": 1108,
        "actors": 1109,
        "istic": 1110,
        "eck": 1111,
        "absol": 1112,
        "yet": 1113,
        "unfortun": 1114,
        "alway": 1115,
        "times": 1116,
        ",so": 1117,
        "audience": 1118,
        "clo": 1119,
        "theyare": 1120,
        "ired": 1121,
        "cli": 1122,
        "\"the": 1123,
        "tv": 1124,
        "dead": 1125,
        "espec": 1126,
        "??": 1127,
        "given": 1128,
        "vd": 1129,
        "sis": 1130,
        "ho": 1131,
        "ones": 1132,
        "usu": 1133,
        "although": 1134,
        "thin": 1135,
        "bed": 1136,
        "book": 1137,
        "oid": 1138,
        "disappoint": 1139,
        "yp": 1140,
        "money": 1141,
        "place": 1142,
        "atic": 1143,
        "tit": 1144,
        "ili": 1145,
        "gue": 1146,
        "entire": 1147,
        "wonder": 1148,
        "thought": 1149,
        "\".": 1150,
        "ates": 1151,
        "entertain": 1152,
        "young": 1153,
        "aster": 1154,
        "swith": 1155,
        "iam": 1156,
        "edoes": 1157,
        "fre": 1158,
        "aus": 1159,
        "woman": 1160,
        "might": 1161,
        "rip": 1162,
        "intothe": 1163,
        "special": 1164,
        "thatwas": 1165,
        "gre": 1166,
        "you'": 1167,
        "ia": 1168,
        "last": 1169,
        "hum": 1170,
        "vid": 1171,
        "edwith": 1172,
        "house": 1173,
        "i've": 1174,
        "except": 1175,
        "fan": 1176,
        "nor": 1177,
        ",then": 1178,
        "ye": 1179,
        "sas": 1180,
        "aboutthe": 1181,
        "esof": 1182,
        "quite": 1183,
        "tofthe": 1184,
        "ingly": 1185,
        "isaw": 1186,
        "youcan": 1187,
        ".in": 1188,
        "ird": 1189,
        "vic": 1190,
        "isnot": 1191,
        "lywood": 1192,
        "itten": 1193,
        "asc": 1194,
        "pa": 1195,
        "tone": 1196,
        "moment": 1197,
        "happen": 1198,
        "ifferent": 1199,
        "ofcourse": 1200,
        "arr": 1201,
        "absolute": 1202,
        "unch": 1203,
        "tod": 1204,
        "member": 1205,
        "rel": 1206,
        "iwould": 1207,
        "having": 1208,
        "wa": 1209,
        "especially": 1210,
        "ange": 1211,
        "sci": 1212,
        "terrible": 1213,
        "completely": 1214,
        ".if": 1215,
        "class": 1216,
        "thathe": 1217,
        "ampire": 1218,
        "hero": 1219,
        "pain": 1220,
        "spo": 1221,
        "sider": 1222,
        "sfor": 1223,
        "ather": 1224,
        "pu": 1225,
        "gener": 1226,
        "understand": 1227,
        ".this": 1228,
        "it,": 1229,
        "rather": 1230,
        "ames": 1231,
        "death": 1232,
        ",who": 1233,
        "beaut": 1234,
        "believ": 1235,
        "flick": 1236,
        "thatit": 1237,
        "cinem": 1238,
        "ix": 1239,
        "invol": 1240,
        "someofthe": 1241,
        "ove": 1242,
        "ped": 1243,
        "everseen": 1244,
        "sad": 1245,
        "review": 1246,
        "mean": 1247,
        "sum": 1248,
        "these": 1249,
        "ship": 1250,
        "ali": 1251,
        "family": 1252,
        "vo": 1253,
        "morethan": 1254,
        "ross": 1255,
        "velop": 1256,
        "s,and": 1257,
        "present": 1258,
        "s.the": 1259,
        "since": 1260,
        "event": 1261,
        "alittle": 1262,
        "ofthis": 1263,
        "ek": 1264,
        "tru": 1265,
        "allow": 1266,
        "fully": 1267,
        "dur": 1268,
        "cut": 1269,
        "fir": 1270,
        "tonly": 1271,
        "performance": 1272,
        "comedy": 1273,
        "coun": 1274,
        "edas": 1275,
        "thed": 1276,
        "commend": 1277,
        "icture": 1278,
        "tell": 1279,
        "motion": 1280,
        "ecan": 1281,
        "role": 1282,
        "-f": 1283,
        "sever": 1284,
        "outh": 1285,
        "iv": 1286,
        "dram": 1287,
        "apparent": 1288,
        "hap": 1289,
        "sk": 1290,
        "dep": 1291,
        "abad": 1292,
        "edup": 1293,
        "anyway": 1294,
        "series": 1295,
        "tore": 1296,
        "viol": 1297,
        "god": 1298,
        "ouple": 1299,
        "\"is": 1300,
        "doc": 1301,
        "episo": 1302,
        "ont": 1303,
        "ihad": 1304,
        "'sh": 1305,
        "tosay": 1306,
        "job": 1307,
        "spe": 1308,
        "thath": 1309,
        "agreat": 1310,
        "ofhis": 1311,
        "pred": 1312,
        "written": 1313,
        "!<br/><br/>": 1314,
        "quest": 1315,
        "left": 1316,
        "dre": 1317,
        "fight": 1318,
        "film.": 1319,
        "\"and": 1320,
        "yes": 1321,
        "toom": 1322,
        "elt": 1323,
        "either": 1324,
        ",h": 1325,
        "open": 1326,
        "crap": 1327,
        "christ": 1328,
        "ingin": 1329,
        "unk": 1330,
        "(and": 1331,
        "ready": 1332,
        "leg": 1333,
        "ilar": 1334,
        "ithought": 1335,
        "ital": 1336,
        "thismoviewas": 1337,
        "band": 1338,
        "iful": 1339,
        "ord": 1340,
        "gar": 1341,
        "absolutely": 1342,
        ".h": 1343,
        "conv": 1344,
        "cap": 1345,
        "atr": 1346,
        "ney": 1347,
        "theonly": 1348,
        "women": 1349,
        "illy": 1350,
        "follow": 1351,
        "can't": 1352,
        "done": 1353,
        "urder": 1354,
        "develop": 1355,
        "however,": 1356,
        "iculous": 1357,
        "ring": 1358,
        "gest": 1359,
        "ample": 1360,
        "wantto": 1361,
        "short": 1362,
        "perhap": 1363,
        "/10": 1364,
        "school": 1365,
        "getting": 1366,
        "vampire": 1367,
        "mention": 1368,
        "extre": 1369,
        "ility": 1370,
        "sho": 1371,
        "sout": 1372,
        "eng": 1373,
        "ingfor": 1374,
        "likes": 1375,
        "picture": 1376,
        "stobe": 1377,
        "sense": 1378,
        "consider": 1379,
        "iously": 1380,
        "prom": 1381,
        "?<br/><br/>": 1382,
        "ote": 1383,
        "tow": 1384,
        "gor": 1385,
        "cas": 1386,
        "ley": 1387,
        "fus": 1388,
        "a.": 1389,
        "sty": 1390,
        "thefact": 1391,
        "ives": 1392,
        "boring": 1393,
        "fair": 1394,
        "killer": 1395,
        "thatthey": 1396,
        "und": 1397,
        "aj": 1398,
        "avoid": 1399,
        "aswell": 1400,
        "lig": 1401,
        "lot": 1402,
        "talent": 1403,
        "sw": 1404,
        "together": 1405,
        "simply": 1406,
        "clear": 1407,
        "theworst": 1408,
        "pleas": 1409,
        "sinthe": 1410,
        "clud": 1411,
        "thestory": 1412,
        "mother": 1413,
        "bly": 1414,
        "ground": 1415,
        "ape": 1416,
        "lar": 1417,
        "everyone": 1418,
        "rom": 1419,
        "0's": 1420,
        "ecom": 1421,
        "ture": 1422,
        ".ifyou": 1423,
        "edid": 1424,
        "cess": 1425,
        ".thisis": 1426,
        "ican't": 1427,
        "vent": 1428,
        "aughter": 1429,
        "watched": 1430,
        "tray": 1431,
        "always": 1432,
        "haves": 1433,
        ".thereis": 1434,
        ".then": 1435,
        "ecould": 1436,
        "enn": 1437,
        "until": 1438,
        "onest": 1439,
        "beh": 1440,
        "gore": 1441,
        "human": 1442,
        "cho": 1443,
        ",with": 1444,
        "jack": 1445,
        "walk": 1446,
        "certain": 1447,
        "side": 1448,
        "cover": 1449,
        "bi": 1450,
        "ension": 1451,
        "thinking": 1452,
        "erand": 1453,
        "things": 1454,
        "half": 1455,
        "creat": 1456,
        "lif": 1457,
        "mess": 1458,
        ",not": 1459,
        "direction": 1460,
        "susp": 1461,
        "credi": 1462,
        "seeing": 1463,
        "comment": 1464,
        "question": 1465,
        "thor": 1466,
        "desp": 1467,
        "lim": 1468,
        "ities": 1469,
        "rob": 1470,
        "etc": 1471,
        "cur": 1472,
        "pose": 1473,
        "vil": 1474,
        "tout": 1475,
        "possible": 1476,
        "stop": 1477,
        "she's": 1478,
        "edfor": 1479,
        "well,": 1480,
        "sim": 1481,
        "etim": 1482,
        "itself": 1483,
        "appy": 1484,
        "dri": 1485,
        "once": 1486,
        "reg": 1487,
        "predict": 1488,
        "face": 1489,
        "father": 1490,
        "insp": 1491,
        "ident": 1492,
        "room": 1493,
        "wher": 1494,
        "aim": 1495,
        "ket": 1496,
        "ump": 1497,
        "quality": 1498,
        "sult": 1499,
        "yof": 1500,
        "imean": 1501,
        "inhis": 1502,
        "ude": 1503,
        "ost": 1504,
        "pass": 1505,
        "all,": 1506,
        "aken": 1507,
        "wouldhave": 1508,
        "hollywood": 1509,
        "save": 1510,
        "wait": 1511,
        "ofthefilm": 1512,
        "loc": 1513,
        "isthat": 1514,
        "oup": 1515,
        ".as": 1516,
        "particul": 1517,
        "thesam": 1518,
        "fic": 1519,
        "ier": 1520,
        "als": 1521,
        "adm": 1522,
        "ithas": 1523,
        "r.": 1524,
        "ize": 1525,
        "igu": 1526,
        "time.": 1527,
        "suc": 1528,
        "pow": 1529,
        "extreme": 1530,
        "likethe": 1531,
        "fac": 1532,
        "plo": 1533,
        "dialogue": 1534,
        "beginn": 1535,
        "wife": 1536,
        "beautiful": 1537,
        "mich": 1538,
        "ben": 1539,
        "selves": 1540,
        "ina": 1541,
        "tryingto": 1542,
        "deser": 1543,
        ".what": 1544,
        "miss": 1545,
        "ché": 1546,
        "atur": 1547,
        "bring": 1548,
        "spoil": 1549,
        "early": 1550,
        "nam": 1551,
        "pop": 1552,
        "bel": 1553,
        "thisfilmis": 1554,
        "esare": 1555,
        "'ve": 1556,
        "ofthem": 1557,
        "whe": 1558,
        "har": 1559,
        "ju": 1560,
        "video": 1561,
        "esome": 1562,
        "vol": 1563,
        ".itwas": 1564,
        "dist": 1565,
        ".itis": 1566,
        "quit": 1567,
        "toget": 1568,
        "thesame": 1569,
        "foot": 1570,
        "-the": 1571,
        "iness": 1572,
        "totally": 1573,
        "actress": 1574,
        "edthat": 1575,
        "edout": 1576,
        "stuff": 1577,
        "ari": 1578,
        "ling": 1579,
        "wasn't": 1580,
        "defin": 1581,
        "already": 1582,
        "eas": 1583,
        "bit": 1584,
        "gy": 1585,
        "help": 1586,
        "i'd": 1587,
        "full": 1588,
        "each": 1589,
        "feature": 1590,
        "ididn't": 1591,
        "years": 1592,
        ",bu": 1593,
        "pri": 1594,
        "ument": 1595,
        "himself": 1596,
        "camer": 1597,
        "edinthe": 1598,
        "tern": 1599,
        "attheend": 1600,
        "iff": 1601,
        "thrill": 1602,
        "specialeffect": 1603,
        "weren": 1604,
        "found": 1605,
        "brother": 1606,
        "bur": 1607,
        "wi": 1608,
        "must": 1609,
        ".so": 1610,
        "rent": 1611,
        "ball": 1612,
        "abig": 1613,
        "stre": 1614,
        "dvd": 1615,
        "abl": 1616,
        "ys": 1617,
        "abr": 1618,
        "cred": 1619,
        "whois": 1620,
        "anin": 1621,
        "writer": 1622,
        "myself": 1623,
        "vill": 1624,
        "evil": 1625,
        "children": 1626,
        "rop": 1627,
        "doing": 1628,
        ").<br/><br/>": 1629,
        "cheap": 1630,
        "run": 1631,
        "becomes": 1632,
        "resp": 1633,
        "abit": 1634,
        "went": 1635,
        "ofthemovie": 1636,
        "mid": 1637,
        "ationof": 1638,
        "apparently": 1639,
        "likethis": 1640,
        "leep": 1641,
        "super": 1642,
        "actingis": 1643,
        "portray": 1644,
        "forc": 1645,
        "lost": 1646,
        ",butthe": 1647,
        "plac": 1648,
        "ago": 1649,
        ".you": 1650,
        "thebest": 1651,
        "pot": 1652,
        "stay": 1653,
        "owith": 1654,
        "utter": 1655,
        "plain": 1656,
        "ief": 1657,
        "todo": 1658,
        "ator": 1659,
        "came": 1660,
        "mal": 1661,
        "itely": 1662,
        "shoot": 1663,
        "ement": 1664,
        "throughout": 1665,
        "finally": 1666,
        "sobad": 1667,
        "annoying": 1668,
        "impress": 1669,
        "cop": 1670,
        "hope": 1671,
        ".thereare": 1672,
        "ingthat": 1673,
        "thetic": 1674,
        "a,": 1675,
        "toff": 1676,
        ".he": 1677,
        "whom": 1678,
        "whenthe": 1679,
        "ele": 1680,
        "uni": 1681,
        "against": 1682,
        "ireally": 1683,
        "engl": 1684,
        "apo": 1685,
        ",because": 1686,
        "200": 1687,
        "ingof": 1688,
        "arch": 1689,
        "horrible": 1690,
        "recommend": 1691,
        "scar": 1692,
        "mil": 1693,
        "explain": 1694,
        "alot": 1695,
        "ines": 1696,
        "apart": 1697,
        "-d": 1698,
        "cle": 1699,
        "vir": 1700,
        "wes": 1701,
        "mas": 1702,
        "poorly": 1703,
        "igure": 1704,
        "thisshow": 1705,
        "bert": 1706,
        "theh": 1707,
        ",if": 1708,
        "nom": 1709,
        "aver": 1710,
        "mark": 1711,
        "learn": 1712,
        "yourself": 1713,
        "medi": 1714,
        "aves": 1715,
        "known": 1716,
        "ison": 1717,
        "experi": 1718,
        "surpris": 1719,
        "inmy": 1720,
        "acouple": 1721,
        "wasteof": 1722,
        "pet": 1723,
        "lock": 1724,
        "andhis": 1725,
        "iguess": 1726,
        "unning": 1727,
        "believable": 1728,
        "basically": 1729,
        "ereally": 1730,
        "behind": 1731,
        "ution": 1732,
        "thismovi": 1733,
        "!\"": 1734,
        "slow": 1735,
        "episode": 1736,
        "whol": 1737,
        "ero": 1738,
        "told": 1739,
        "vision": 1740,
        "alk": 1741,
        "ries": 1742,
        "shis": 1743,
        "a-": 1744,
        "ences": 1745,
        "i'veseen": 1746,
        "!!!!": 1747,
        "gives": 1748,
        "ais": 1749,
        "somuch": 1750,
        "list": 1751,
        "extremely": 1752,
        "ael": 1753,
        "jus": 1754,
        "different": 1755,
        "name": 1756,
        "takes": 1757,
        "i'mnot": 1758,
        "umber": 1759,
        ".even": 1760,
        "andthen": 1761,
        "inan": 1762,
        "non": 1763,
        "said": 1764,
        "heard": 1765,
        "unfortunately": 1766,
        "of\"": 1767,
        "i-": 1768,
        "level": 1769,
        "three": 1770,
        "ular": 1771,
        "tou": 1772,
        ".theonly": 1773,
        "rec": 1774,
        "asp": 1775,
        "playing": 1776,
        "inthemovie": 1777,
        "gun": 1778,
        "edbythe": 1779,
        "i'll": 1780,
        "home": 1781,
        "past": 1782,
        "ott": 1783,
        "possib": 1784,
        "ahor": 1785,
        "throw": 1786,
        "oto": 1787,
        "humor": 1788,
        "therewas": 1789,
        "swere": 1790,
        "ableto": 1791,
        "few": 1792,
        "quick": 1793,
        "aper": 1794,
        "therestof": 1795,
        "intel": 1796,
        "asan": 1797,
        "inthismovie": 1798,
        "aand": 1799,
        "prof": 1800,
        "viewer": 1801,
        "isjust": 1802,
        "suck": 1803,
        "convinc": 1804,
        "iel": 1805,
        "ses": 1806,
        "du": 1807,
        "plan": 1808,
        "ific": 1809,
        "eme": 1810,
        "ed\"": 1811,
        ",he": 1812,
        "s,but": 1813,
        "uation": 1814,
        "exact": 1815,
        "inthefilm": 1816,
        "stud": 1817,
        "liver": 1818,
        "coming": 1819,
        "certainly": 1820,
        "forme": 1821,
        "town": 1822,
        "supposedtobe": 1823,
        "agr": 1824,
        ".thefilm": 1825,
        "break": 1826,
        "themselves": 1827,
        "wantedto": 1828,
        "agu": 1829,
        "track": 1830,
        "graphy": 1831,
        "using": 1832,
        "genre": 1833,
        "predictable": 1834,
        "performanc": 1835,
        "aton": 1836,
        "several": 1837,
        "sorry": 1838,
        "pur": 1839,
        "bat": 1840,
        ",that": 1841,
        "forget": 1842,
        "antic": 1843,
        "you're": 1844,
        "n'thave": 1845,
        "ridiculous": 1846,
        "itseem": 1847,
        "wish": 1848,
        "bey": 1849,
        "sem": 1850,
        "sam": 1851,
        "couldhavebeen": 1852,
        "chang": 1853,
        "saw": 1854,
        "jokes": 1855,
        "took": 1856,
        "heart": 1857,
        "shim": 1858,
        "key": 1859,
        "talk": 1860,
        "otic": 1861,
        "eless": 1862,
        "obviously": 1863,
        "thre": 1864,
        "arely": 1865,
        "includ": 1866,
        "soon": 1867,
        "init": 1868,
        "remember": 1869,
        "cost": 1870,
        "sn": 1871,
        "ential": 1872,
        "writing": 1873,
        "scary": 1874,
        "\",": 1875,
        "live": 1876,
        "avor": 1877,
        "thank": 1878,
        "cu": 1879,
        "charactersare": 1880,
        "del": 1881,
        "check": 1882,
        "noteven": 1883,
        ".no": 1884,
        "bored": 1885,
        "barr": 1886,
        "s)": 1887,
        ",even": 1888,
        "despite": 1889,
        "hot": 1890,
        "ede": 1891,
        "usually": 1892,
        "releas": 1893,
        "dou": 1894,
        "somes": 1895,
        "partof": 1896,
        "amaz": 1897,
        "withhis": 1898,
        "pieceof": 1899,
        "hit": 1900,
        "'scharacter": 1901,
        "wear": 1902,
        "ryingto": 1903,
        "opl": 1904,
        "haveto": 1905,
        "ently": 1906,
        "jer": 1907,
        "exist": 1908,
        "become": 1909,
        "ram": 1910,
        "'d": 1911,
        "ed.<br/><br/>": 1912,
        "hear": 1913,
        "beyond": 1914,
        "asm": 1915,
        "acl": 1916,
        "order": 1917,
        "mag": 1918,
        "across": 1919,
        "inst": 1920,
        "typ": 1921,
        "itic": 1922,
        "betterthan": 1923,
        "thebook": 1924,
        "iter": 1925,
        "move": 1926,
        "insteadof": 1927,
        "****": 1928,
        "lines": 1929,
        ",this": 1930,
        "badly": 1931,
        "perhaps": 1932,
        "makers": 1933,
        "appro": 1934,
        "pay": 1935,
        "looks": 1936,
        "ung": 1937,
        "used": 1938,
        "definitely": 1939,
        "sych": 1940,
        "asher": 1941,
        "dle": 1942,
        "edy": 1943,
        "aman": 1944,
        "...<br/><br/>": 1945,
        "later": 1946,
        "michael": 1947,
        "rap": 1948,
        "shewas": 1949,
        "case": 1950,
        "violence": 1951,
        "s?": 1952,
        "yes,": 1953,
        "dest": 1954,
        "ano": 1955,
        "dialog": 1956,
        "thismovie.": 1957,
        "dark": 1958,
        "er.": 1959,
        "style": 1960,
        "deal": 1961,
        "sold": 1962,
        "wouldhavebeen": 1963,
        "aterial": 1964,
        "acon": 1965,
        "haveseen": 1966,
        "unless": 1967,
        "emy": 1968,
        "you'll": 1969,
        "det": 1970,
        "final": 1971,
        "joke": 1972,
        "weak": 1973,
        "couldn't": 1974,
        "sheis": 1975,
        "usual": 1976,
        "inthisfilm": 1977,
        "twist": 1978,
        "intention": 1979,
        "supposedto": 1980,
        "peopl": 1981,
        "rock": 1982,
        "ile": 1983,
        "wel": 1984,
        "lad": 1985,
        "next": 1986,
        "cliché": 1987,
        "ortof": 1988,
        "won't": 1989,
        "20": 1990,
        "ork": 1991,
        "chees": 1992,
        "moder": 1993,
        "often": 1994,
        "areal": 1995,
        "astr": 1996,
        "ino": 1997,
        "toon": 1998,
        "agon": 1999,
        "contin": 2000,
        "eshould": 2001,
        "effort": 2002,
        "donot": 2003,
        "s'": 2004,
        "pathetic": 2005,
        "sen": 2006,
        "teen": 2007,
        "197": 2008,
        "looked": 2009,
        "olog": 2010,
        "classic": 2011,
        "thecast": 2012,
        "stra": 2013,
        "-up": 2014,
        "whath": 2015,
        "song": 2016,
        "desc": 2017,
        "antly": 2018,
        "arm": 2019,
        "toomuch": 2020,
        "murder": 2021,
        "the\"": 2022,
        "roll": 2023,
        "mel": 2024,
        "ping": 2025,
        "usband": 2026,
        ",no": 2027,
        "bro": 2028,
        "rating": 2029,
        "daughter": 2030,
        "age.": 2031,
        "outof10": 2032,
        "throughthe": 2033,
        "accent": 2034,
        "sfrom": 2035,
        "que": 2036,
        "seemsto": 2037,
        "tech": 2038,
        "shave": 2039,
        "close": 2040,
        "tofind": 2041,
        "lives": 2042,
        "whenthey": 2043,
        "urb": 2044,
        "ited": 2045,
        "fem": 2046,
        "itive": 2047,
        "hasbeen": 2048,
        "decid": 2049,
        "possibly": 2050,
        "theoriginal": 2051,
        "edly": 2052,
        "tohave": 2053,
        "box": 2054,
        "exactly": 2055,
        "frank": 2056,
        "abe": 2057,
        "themost": 2058,
        "ination": 2059,
        "etimes": 2060,
        "zombies": 2061,
        "forthis": 2062,
        "living": 2063,
        "english": 2064,
        "villain": 2065,
        ",just": 2066,
        "step": 2067,
        "myster": 2068,
        "awn": 2069,
        "confus": 2070,
        "sexual": 2071,
        "it'snot": 2072,
        "honest": 2073,
        "hen": 2074,
        "eries": 2075,
        "ecent": 2076,
        "ik": 2077,
        "ational": 2078,
        "?)": 2079,
        "doesnot": 2080,
        "tract": 2081,
        "killing": 2082,
        "isan": 2083,
        "stick": 2084,
        "overthe": 2085,
        "fu": 2086,
        "cial": 2087,
        "lu": 2088,
        ".(": 2089,
        "premis": 2090,
        "firstof": 2091,
        ".iwas": 2092,
        "title": 2093,
        "involved": 2094,
        "anger": 2095,
        "mot": 2096,
        "apan": 2097,
        "80": 2098,
        "actual": 2099,
        "theater": 2100,
        "ecess": 2101,
        "ym": 2102,
        "warn": 2103,
        "somehow": 2104,
        ".not": 2105,
        "sequel": 2106,
        "chard": 2107,
        "inwhich": 2108,
        "thefactthat": 2109,
        ".there's": 2110,
        "white": 2111,
        "udity": 2112,
        "eman": 2113,
        "azy": 2114,
        "inion": 2115,
        "ingthis": 2116,
        "abunch": 2117,
        "somany": 2118,
        "okay": 2119,
        "ener": 2120,
        "rated": 2121,
        "aby": 2122,
        "power": 2123,
        "'st": 2124,
        "barrass": 2125,
        "jud": 2126,
        "history": 2127,
        "crim": 2128,
        "opening": 2129,
        "type": 2130,
        "aven": 2131,
        "pac": 2132,
        "oud": 2133,
        "ifound": 2134,
        "isf": 2135,
        "zz": 2136,
        "spir": 2137,
        "mart": 2138,
        "modern": 2139,
        "store": 2140,
        "stone": 2141,
        "it.<br/><br/>": 2142,
        "50": 2143,
        "in\"": 2144,
        "swho": 2145,
        "leave": 2146,
        "emon": 2147,
        "ince": 2148,
        "amate": 2149,
        "aur": 2150,
        "gan": 2151,
        "unfortunate": 2152,
        "ing\"": 2153,
        ",though": 2154,
        "mach": 2155,
        "manag": 2156,
        ".)": 2157,
        "they're": 2158,
        "thedirector": 2159,
        "aving": 2160,
        "particularly": 2161,
        "brain": 2162,
        "garb": 2163,
        "tover": 2164,
        "angel": 2165,
        "trash": 2166,
        "plotis": 2167,
        "econ": 2168,
        "theend": 2169,
        "edoesn't": 2170,
        "mostofthe": 2171,
        "bt": 2172,
        "hate": 2173,
        "tool": 2174,
        "bill": 2175,
        "30": 2176,
        "upwith": 2177,
        "ession": 2178,
        "whatever": 2179,
        "feeling": 2180,
        ".thestory": 2181,
        "direct": 2182,
        "whichis": 2183,
        "dog": 2184,
        "victim": 2185,
        "hes": 2186,
        "shouldbe": 2187,
        "appeal": 2188,
        "a's": 2189,
        "import": 2190,
        "?\"": 2191,
        ".<br/><br/>i": 2192,
        "intof": 2193,
        "played": 2194,
        "iment": 2195,
        "wo": 2196,
        "andun": 2197,
        "!!!": 2198,
        ",thefilm": 2199,
        "incredi": 2200,
        "illion": 2201,
        "theywere": 2202,
        "usion": 2203,
        "write": 2204,
        "todowith": 2205,
        "girlfriend": 2206,
        ",itis": 2207,
        "odd": 2208,
        ".when": 2209,
        "lect": 2210,
        "escen": 2211,
        "edme": 2212,
        ")is": 2213,
        "shad": 2214,
        "board": 2215,
        "ient": 2216,
        "amateur": 2217,
        "scare": 2218,
        "andi": 2219,
        "attention": 2220,
        "annoy": 2221,
        "trans": 2222,
        "xample": 2223,
        "wise": 2224,
        "esthe": 2225,
        "brit": 2226,
        "andit": 2227,
        "photo": 2228,
        ",butit": 2229,
        ",thisis": 2230,
        "mist": 2231,
        "willi": 2232,
        "lookingfor": 2233,
        "terri": 2234,
        "oman": 2235,
        "experience": 2236,
        "adis": 2237,
        "giving": 2238,
        "wasthe": 2239,
        "gn": 2240,
        "avid": 2241,
        "ubb": 2242,
        "beginning": 2243,
        "talking": 2244,
        "sist": 2245,
        "wil": 2246,
        "gin": 2247,
        "adv": 2248,
        "die": 2249,
        "bad.": 2250,
        "mostly": 2251,
        "decent": 2252,
        "kept": 2253,
        "buy": 2254,
        "ny": 2255,
        "weare": 2256,
        "success": 2257,
        "kno": 2258,
        "emotion": 2259,
        "tome": 2260,
        "opinion": 2261,
        "mc": 2262,
        "maincharacter": 2263,
        ".themovie": 2264,
        "five": 2265,
        "sortof": 2266,
        "beat": 2267,
        "seriously": 2268,
        ",s": 2269,
        "ifi": 2270,
        "199": 2271,
        "isit": 2272,
        "claim": 2273,
        "def": 2274,
        "abou": 2275,
        "writers": 2276,
        "van": 2277,
        "tur": 2278,
        "rit": 2279,
        "andon": 2280,
        "score": 2281,
        "itting": 2282,
        "ability": 2283,
        "ount": 2284,
        "soff": 2285,
        "ellent": 2286,
        "arre": 2287,
        "meant": 2288,
        "yearold": 2289,
        "movie,": 2290,
        "'ll": 2291,
        "log": 2292,
        "dumb": 2293,
        "fur": 2294,
        "burn": 2295,
        "wasted": 2296,
        "intheir": 2297,
        "withan": 2298,
        "idi": 2299,
        "straight": 2300,
        "tele": 2301,
        "danc": 2302,
        "comic": 2303,
        "\"(": 2304,
        "roduc": 2305,
        "asing": 2306,
        "ni": 2307,
        "novel": 2308,
        "pick": 2309,
        "overall": 2310,
        "ston": 2311,
        "inthefirst": 2312,
        "inher": 2313,
        "s:": 2314,
        "lan": 2315,
        "whether": 2316,
        "ghost": 2317,
        "wouldn't": 2318,
        "called": 2319,
        "ofan": 2320,
        "annel": 2321,
        "willbe": 2322,
        "umentary": 2323,
        "itto": 2324,
        ",when": 2325,
        "cool": 2326,
        "sinto": 2327,
        "deem": 2328,
        "scient": 2329,
        "astory": 2330,
        "roles": 2331,
        "-and": 2332,
        "reality": 2333,
        "perfect": 2334,
        "pointless": 2335,
        "standard": 2336,
        "return": 2337,
        "lookslike": 2338,
        "scream": 2339,
        "'s\"": 2340,
        "strong": 2341,
        "law": 2342,
        "christmas": 2343,
        "dull": 2344,
        "hold": 2345,
        "clearly": 2346,
        "voice": 2347,
        "ofher": 2348,
        "attack": 2349,
        "amily": 2350,
        "ding": 2351,
        "aked": 2352,
        "thebig": 2353,
        "ilo": 2354,
        "ris": 2355,
        "development": 2356,
        "build": 2357,
        "japan": 2358,
        "withthis": 2359,
        "embarrass": 2360,
        "abunchof": 2361,
        "thavebeen": 2362,
        "ationship": 2363,
        "upon": 2364,
        "ands": 2365,
        "oul": 2366,
        "let's": 2367,
        "wew": 2368,
        "ford": 2369,
        "basedon": 2370,
        "knowwhat": 2371,
        "lackof": 2372,
        "afe": 2373,
        "acting,": 2374,
        "youare": 2375,
        "ham": 2376,
        "prettymuch": 2377,
        "elly": 2378,
        "acoupleof": 2379,
        "nice": 2380,
        "bother": 2381,
        "'se": 2382,
        "justh": 2383,
        "agg": 2384,
        "dom": 2385,
        "taking": 2386,
        "uss": 2387,
        "working": 2388,
        "!)": 2389,
        "tothis": 2390,
        "ithad": 2391,
        "student": 2392,
        "husband": 2393,
        "lip": 2394,
        "path": 2395,
        "ister": 2396,
        "animation": 2397,
        "inghis": 2398,
        "bus": 2399,
        "hehas": 2400,
        ",sh": 2401,
        "suchas": 2402,
        "atri": 2403,
        "otherthan": 2404,
        "excit": 2405,
        "wherethe": 2406,
        "duringthe": 2407,
        "s-": 2408,
        "killed": 2409,
        "ush": 2410,
        "liked": 2411,
        "ihaveeverseen": 2412,
        "ugg": 2413,
        "ze": 2414,
        ".for": 2415,
        "etime": 2416,
        "matter": 2417,
        "felt": 2418,
        "intellig": 2419,
        "storyline": 2420,
        "stere": 2421,
        "itand": 2422,
        "otyp": 2423,
        "abetter": 2424,
        "above": 2425,
        "grand": 2426,
        "itof": 2427,
        "enoughto": 2428,
        "wed": 2429,
        "able.": 2430,
        "ages": 2431,
        "batt": 2432,
        "oneoftheworst": 2433,
        ",for": 2434,
        "ides": 2435,
        "rench": 2436,
        "withher": 2437,
        "weird": 2438,
        "alone": 2439,
        "thelp": 2440,
        "maker": 2441,
        "thisfilmwas": 2442,
        "change": 2443,
        "plays": 2444,
        "enton": 2445,
        "gave": 2446,
        "ifyou're": 2447,
        "local": 2448,
        "figure": 2449,
        "cinemato": 2450,
        "const": 2451,
        "thewhole": 2452,
        "hell": 2453,
        "ived": 2454,
        "lat": 2455,
        "jor": 2456,
        "situation": 2457,
        "post": 2458,
        "peter": 2459,
        "ideas": 2460,
        ".after": 2461,
        "weres": 2462,
        "suppor": 2463,
        "editing": 2464,
        "uro": 2465,
        "athe": 2466,
        "psych": 2467,
        "oung": 2468,
        "ifthey": 2469,
        "onel": 2470,
        "didnot": 2471,
        "period": 2472,
        "meet": 2473,
        "ceed": 2474,
        "aged": 2475,
        "sometimes": 2476,
        "s,the": 2477,
        "triesto": 2478,
        "andre": 2479,
        "publ": 2480,
        "background": 2481,
        "whenyou": 2482,
        "sym": 2483,
        "peoplewho": 2484,
        "equ": 2485,
        "fast": 2486,
        "iton": 2487,
        "imm": 2488,
        "whit": 2489,
        "usic": 2490,
        ",whichis": 2491,
        "theplot": 2492,
        "ral": 2493,
        "silly": 2494,
        "richard": 2495,
        "afr": 2496,
        "street": 2497,
        "truly": 2498,
        "inger": 2499,
        "notto": 2500,
        "wasteyour": 2501,
        "mr.": 2502,
        "police": 2503,
        "yn": 2504,
        "sud": 2505,
        "yeah": 2506,
        "forexample": 2507,
        "exec": 2508,
        "...and": 2509,
        "creep": 2510,
        "-the-": 2511,
        "project": 2512,
        "y's": 2513,
        "door": 2514,
        "offic": 2515,
        ".also": 2516,
        "ald": 2517,
        "scan": 2518,
        "notonly": 2519,
        ".why": 2520,
        "week": 2521,
        "fant": 2522,
        "city": 2523,
        "anew": 2524,
        "potential": 2525,
        "geor": 2526,
        "camp": 2527,
        "beend": 2528,
        ",itwas": 2529,
        "roy": 2530,
        "serious": 2531,
        "unfortunately,": 2532,
        "inas": 2533,
        "ingas": 2534,
        "due": 2535,
        "sth": 2536,
        "imd": 2537,
        "scom": 2538,
        "andom": 2539,
        "lame": 2540,
        "attract": 2541,
        "running": 2542,
        "allofthe": 2543,
        "ried": 2544,
        "viewers": 2545,
        "accept": 2546,
        "gold": 2547,
        "chris": 2548,
        "premise": 2549,
        "cartoon": 2550,
        "soci": 2551,
        "master": 2552,
        "asy": 2553,
        "pres": 2554,
        "exception": 2555,
        "fire": 2556,
        "spend": 2557,
        ",un": 2558,
        "actingwas": 2559,
        "ax": 2560,
        "aro": 2561,
        "ilarious": 2562,
        "flash": 2563,
        "ii": 2564,
        "),and": 2565,
        "prison": 2566,
        "tast": 2567,
        "infact": 2568,
        "thereal": 2569,
        "barely": 2570,
        "ffer": 2571,
        "ersand": 2572,
        "oper": 2573,
        ":the": 2574,
        "important": 2575,
        "dam": 2576,
        "search": 2577,
        "ofall": 2578,
        "neither": 2579,
        "contain": 2580,
        "cult": 2581,
        "middle": 2582,
        "weren't": 2583,
        "eseem": 2584,
        "deliver": 2585,
        "mary": 2586,
        "estory": 2587,
        "aught": 2588,
        "tohis": 2589,
        "whohas": 2590,
        "anic": 2591,
        "dev": 2592,
        "hy": 2593,
        "excellent": 2594,
        "haven't": 2595,
        "eday": 2596,
        ".that": 2597,
        "edinto": 2598,
        "rac": 2599,
        "ray": 2600,
        "jump": 2601,
        "playedby": 2602,
        "ijust": 2603,
        "(or": 2604,
        "nearly": 2605,
        "thefilmis": 2606,
        "trou": 2607,
        "true": 2608,
        "couldhave": 2609,
        "respect": 2610,
        "thas": 2611,
        "wind": 2612,
        "extr": 2613,
        "whatis": 2614,
        ":\"": 2615,
        "pal": 2616,
        "abouth": 2617,
        "butthe": 2618,
        "met": 2619,
        "issu": 2620,
        "intheend": 2621,
        "major": 2622,
        "guess": 2623,
        "subject": 2624,
        "ofit": 2625,
        ".now": 2626,
        "needto": 2627,
        "doctor": 2628,
        "scr": 2629,
        "arn": 2630,
        "train": 2631,
        "struc": 2632,
        "realistic": 2633,
        "urt": 2634,
        "conn": 2635,
        "avi": 2636,
        "ized": 2637,
        "escene": 2638,
        "shown": 2639,
        "becaus": 2640,
        "estart": 2641,
        ".sh": 2642,
        "hom": 2643,
        "western": 2644,
        "memor": 2645,
        "thatyou": 2646,
        "sudden": 2647,
        "ruly": 2648,
        "americ": 2649,
        "self-": 2650,
        "uff": 2651,
        "what's": 2652,
        "stat": 2653,
        "suspense": 2654,
        "ilove": 2655,
        "fans": 2656,
        "lotsof": 2657,
        "sug": 2658,
        "ifficul": 2659,
        "ros": 2660,
        "adam": 2661,
        "fred": 2662,
        "ished": 2663,
        "sign": 2664,
        "ers,": 2665,
        "zombie": 2666,
        "bian": 2667,
        "compet": 2668,
        "adap": 2669,
        "ensive": 2670,
        "william": 2671,
        "prot": 2672,
        "exper": 2673,
        "example": 2674,
        "awayfrom": 2675,
        "arg": 2676,
        "horri": 2677,
        "chas": 2678,
        "imagine": 2679,
        "togo": 2680,
        "valu": 2681,
        "oop": 2682,
        "ito": 2683,
        "abor": 2684,
        "edfrom": 2685,
        "ey": 2686,
        "eno": 2687,
        "bles": 2688,
        ".i'm": 2689,
        "acr": 2690,
        "noneofthe": 2691,
        "lies": 2692,
        "charm": 2693,
        "cat": 2694,
        "continu": 2695,
        "entertaining": 2696,
        "onem": 2697,
        "veal": 2698,
        "chick": 2699,
        "edis": 2700,
        "i'veeverseen": 2701,
        "contri": 2702,
        "thriller": 2703,
        "bear": 2704,
        "round": 2705,
        "during": 2706,
        "earth": 2707,
        "james": 2708,
        "directing": 2709,
        "forward": 2710,
        "edat": 2711,
        "itical": 2712,
        "itle": 2713,
        "win": 2714,
        "season": 2715,
        "ingtheir": 2716,
        "\"was": 2717,
        "regard": 2718,
        "design": 2719,
        "nic": 2720,
        "water": 2721,
        "ky": 2722,
        "dream": 2723,
        "setting": 2724,
        "ratherthan": 2725,
        "andis": 2726,
        "arth": 2727,
        "anhour": 2728,
        "four": 2729,
        "rong": 2730,
        "onthis": 2731,
        "gang": 2732,
        "material": 2733,
        "ecessary": 2734,
        "thim": 2735,
        "asit": 2736,
        "entertainment": 2737,
        "s!": 2738,
        "butit": 2739,
        "touch": 2740,
        "cern": 2741,
        "teach": 2742,
        "york": 2743,
        "theother": 2744,
        "brilli": 2745,
        "agroup": 2746,
        "res": 2747,
        "screenplay": 2748,
        "berg": 2749,
        "stereotyp": 2750,
        "introduc": 2751,
        "ache": 2752,
        "parent": 2753,
        ".how": 2754,
        "absur": 2755,
        "redeem": 2756,
        "whenit": 2757,
        "(the": 2758,
        "pointof": 2759,
        "astic": 2760,
        "country": 2761,
        "fell": 2762,
        "196": 2763,
        ",especially": 2764,
        "ifyouare": 2765,
        "tori": 2766,
        "thisfilm.": 2767,
        "areally": 2768,
        "sleep": 2769,
        "please": 2770,
        "offer": 2771,
        "sar": 2772,
        ",we": 2773,
        "batman": 2774,
        "ery": 2775,
        "haved": 2776,
        "ocus": 2777,
        "credit": 2778,
        "ultim": 2779,
        "survi": 2780,
        "asif": 2781,
        "kids": 2782,
        "lose": 2783,
        "max": 2784,
        "admit": 2785,
        "quickly": 2786,
        "imagin": 2787,
        "isso": 2788,
        "comple": 2789,
        "near": 2790,
        "gotten": 2791,
        "pure": 2792,
        "answer": 2793,
        "anun": 2794,
        "irector": 2795,
        "15": 2796,
        "tre": 2797,
        "television": 2798,
        "ereason": 2799,
        "adult": 2800,
        "ech": 2801,
        "ingit": 2802,
        "lyn": 2803,
        "gone": 2804,
        "backto": 2805,
        "toomany": 2806,
        "ingher": 2807,
        "today": 2808,
        "rele": 2809,
        "venture": 2810,
        "consist": 2811,
        "explo": 2812,
        "sister": 2813,
        "iknow": 2814,
        "award": 2815,
        "asa": 2816,
        "dramatic": 2817,
        "ofthat": 2818,
        "sell": 2819,
        "intend": 2820,
        ".all": 2821,
        "icouldn't": 2822,
        "morelike": 2823,
        "lover": 2824,
        "90": 2825,
        "perform": 2826,
        "robert": 2827,
        "ingon": 2828,
        ".his": 2829,
        "forhis": 2830,
        "thelast": 2831,
        "esthat": 2832,
        "badguy": 2833,
        "gust": 2834,
        "ousand": 2835,
        "ingout": 2836,
        "wow": 2837,
        "wol": 2838,
        "ahu": 2839,
        "anyofthe": 2840,
        "retch": 2841,
        "thingabout": 2842,
        "prise": 2843,
        ",there's": 2844,
        "musical": 2845,
        "?the": 2846,
        ",andthen": 2847,
        "pat": 2848,
        "ingup": 2849,
        "bul": 2850,
        "onic": 2851,
        "sequence": 2852,
        "shel": 2853,
        "suggest": 2854,
        "(which": 2855,
        "plus": 2856,
        "tobes": 2857,
        "ilike": 2858,
        "\"and\"": 2859,
        "rect": 2860,
        "flat": 2861,
        "ers.": 2862,
        "fo": 2863,
        "hun": 2864,
        "film,": 2865,
        "fit": 2866,
        "footage": 2867,
        "taken": 2868,
        "thathas": 2869,
        "apl": 2870,
        "clusion": 2871,
        "ido": 2872,
        "boo": 2873,
        "sabout": 2874,
        "non-": 2875,
        "piece": 2876,
        "ously": 2877,
        "isvery": 2878,
        "british": 2879,
        "hood": 2880,
        "toward": 2881,
        "nudity": 2882,
        "ayoung": 2883,
        "ewatch": 2884,
        "er's": 2885,
        "agree": 2886,
        "notbe": 2887,
        "luck": 2888,
        "same": 2889,
        "absurd": 2890,
        "ifficult": 2891,
        "ado": 2892,
        "thescript": 2893,
        "ables": 2894,
        "mosp": 2895,
        "med": 2896,
        "gay": 2897,
        "david": 2898,
        "casion": 2899,
        "dol": 2900,
        "average": 2901,
        "forher": 2902,
        "looklike": 2903,
        "apret": 2904,
        "previous": 2905,
        "pul": 2906,
        "din": 2907,
        "adecent": 2908,
        "ula": 2909,
        "third": 2910,
        "crow": 2911,
        "revol": 2912,
        "walking": 2913,
        "ifeel": 2914,
        "lowbudget": 2915,
        "isa": 2916,
        "ottom": 2917,
        "urope": 2918,
        "edtothe": 2919,
        "channel": 2920,
        "makeit": 2921,
        ",etc": 2922,
        ",iwas": 2923,
        "unity": 2924,
        "toobad": 2925,
        "watchit": 2926,
        "aust": 2927,
        "ahorror": 2928,
        "performances": 2929,
        "haveno": 2930,
        ".however,": 2931,
        "scientist": 2932,
        "count": 2933,
        "favor": 2934,
        "je": 2935,
        "serv": 2936,
        "rich": 2937,
        ").the": 2938,
        "whatso": 2939,
        "whatwas": 2940,
        "goingon": 2941,
        "speak": 2942,
        "iwatched": 2943,
        "lie": 2944,
        ",like": 2945,
        "supporting": 2946,
        "atmosp": 2947,
        "sed": 2948,
        "porn": 2949,
        "descri": 2950,
        "natur": 2951,
        "sal": 2952,
        "oreven": 2953,
        "keaton": 2954,
        "inde": 2955,
        "chem": 2956,
        "island": 2957,
        "disney": 2958,
        "row": 2959,
        "pression": 2960,
        "migh": 2961,
        "itary": 2962,
        "remo": 2963,
        "hair": 2964,
        "sbut": 2965,
        "wehave": 2966,
        "ing.<br/><br/>": 2967,
        "iwill": 2968,
        ",to": 2969,
        "ander": 2970,
        "gram": 2971,
        "club": 2972,
        "isto": 2973,
        "utterly": 2974,
        "ades": 2975,
        "shock": 2976,
        "career": 2977,
        "re-": 2978,
        "entof": 2979,
        "etr": 2980,
        "sav": 2981,
        "minutesof": 2982,
        "fron": 2983,
        "abo": 2984,
        "awoman": 2985,
        "ahalf": 2986,
        "000": 2987,
        "dow": 2988,
        "itwasn't": 2989,
        "apes": 2990,
        "lam": 2991,
        "litt": 2992,
        "liter": 2993,
        "happ": 2994,
        ".don't": 2995,
        "?!": 2996,
        "whowas": 2997,
        "whatsoever": 2998,
        "visual": 2999,
        ",themovie": 3000,
        ",was": 3001,
        "suffer": 3002,
        "detail": 3003,
        "ager": 3004,
        "core": 3005,
        "aser": 3006,
        "trail": 3007,
        "cheesy": 3008,
        "hill": 3009,
        "public": 3010,
        "seemto": 3011,
        "themovieis": 3012,
        "broad": 3013,
        "idon'tthink": 3014,
        "ances": 3015,
        "avy": 3016,
        "thismovies": 3017,
        "hem": 3018,
        "easily": 3019,
        "andnot": 3020,
        "documentary": 3021,
        "san": 3022,
        "mone": 3023,
        "histor": 3024,
        "inally": 3025,
        "science": 3026,
        "strange": 3027,
        "oneofthemost": 3028,
        "brought": 3029,
        "phys": 3030,
        "inspired": 3031,
        "giveit": 3032,
        "paul": 3033,
        "animal": 3034,
        "bin": 3035,
        "none": 3036,
        "desper": 3037,
        "hasno": 3038,
        "lee": 3039,
        "pull": 3040,
        "likely": 3041,
        "seemed": 3042,
        "oneofthose": 3043,
        "knew": 3044,
        "wis": 3045,
        "depth": 3046,
        "critic": 3047,
        "igot": 3048,
        "onn": 3049,
        "happy": 3050,
        "rup": 3051,
        "stage": 3052,
        "saying": 3053,
        ".iam": 3054,
        "ashion": 3055,
        "refer": 3056,
        "concept": 3057,
        "bol": 3058,
        "izarre": 3059,
        "further": 3060,
        "worsethan": 3061,
        "ising": 3062,
        "acomplete": 3063,
        "tic": 3064,
        "arri": 3065,
        "quel": 3066,
        ".however": 3067,
        "anymore": 3068,
        "toc": 3069,
        "becausethe": 3070,
        "directed": 3071,
        "likethat": 3072,
        "ifyouwant": 3073,
        "estr": 3074,
        ",thereare": 3075,
        "amo": 3076,
        "accur": 3077,
        "late": 3078,
        "ett": 3079,
        "muchbetter": 3080,
        ".just": 3081,
        "oft": 3082,
        "films,": 3083,
        "asthey": 3084,
        "andwas": 3085,
        "saythat": 3086,
        "omething": 3087,
        "dad": 3088,
        ".ithink": 3089,
        "wall": 3090,
        "accident": 3091,
        "and,": 3092,
        "withno": 3093,
        "episodes": 3094,
        "imdb": 3095,
        "aren't": 3096,
        ".<br/><br/>but": 3097,
        "awe": 3098,
        "drug": 3099,
        "excuse": 3100,
        "waythrough": 3101,
        "dies": 3102,
        "ertain": 3103,
        "small": 3104,
        "lying": 3105,
        "rol": 3106,
        "painful": 3107,
        "grow": 3108,
        "venge": 3109,
        "198": 3110,
        "youknow": 3111,
        ".my": 3112,
        "edthis": 3113,
        "inj": 3114,
        "park": 3115,
        "bust": 3116,
        "betweenthe": 3117,
        "lection": 3118,
        "alli": 3119,
        "andher": 3120,
        "ield": 3121,
        "mur": 3122,
        "a(": 3123,
        "drop": 3124,
        "blow": 3125,
        "unbelievable": 3126,
        "folk": 3127,
        "iest": 3128,
        "somewhat": 3129,
        "afterthe": 3130,
        "aspect": 3131,
        "remind": 3132,
        "ofor": 3133,
        "aa": 3134,
        "artist": 3135,
        "watchingthis": 3136,
        "...but": 3137,
        "imust": 3138,
        "mightbe": 3139,
        "ingwith": 3140,
        "slater": 3141,
        "iction": 3142,
        "t.": 3143,
        "leaves": 3144,
        "mac": 3145,
        "as\"": 3146,
        "shouldhave": 3147,
        "ollow": 3148,
        "afan": 3149,
        "spoilers": 3150,
        "stothe": 3151,
        ",c": 3152,
        "connect": 3153,
        "ifthe": 3154,
        "ival": 3155,
        "team": 3156,
        "invest": 3157,
        "belief": 3158,
        "group": 3159,
        "hardly": 3160,
        "ed.the": 3161,
        "awasteof": 3162,
        "vere": 3163,
        "incredibly": 3164,
        "preci": 3165,
        "ahead": 3166,
        "couldbe": 3167,
        "imension": 3168,
        "anti-": 3169,
        "conce": 3170,
        "upto": 3171,
        "terror": 3172,
        "whathappen": 3173,
        "tobeli": 3174,
        "among": 3175,
        "apretty": 3176,
        "trad": 3177,
        "thecamer": 3178,
        "ecid": 3179,
        "wrote": 3180,
        "-to": 3181,
        "free": 3182,
        "mm": 3183,
        "?why": 3184,
        "fear": 3185,
        "idon'tknow": 3186,
        "eachother": 3187,
        "mi": 3188,
        "thinkof": 3189,
        "ings": 3190,
        "asto": 3191,
        "thus": 3192,
        "ackof": 3193,
        "gag": 3194,
        "low-": 3195,
        "slasher": 3196,
        "forthem": 3197,
        "load": 3198,
        "whose": 3199,
        "adventure": 3200,
        "muchmore": 3201,
        "named": 3202,
        "itation": 3203,
        "atal": 3204,
        "monster": 3205,
        "prop": 3206,
        "canbe": 3207,
        "ahigh": 3208,
        "inno": 3209,
        "seems": 3210,
        "green": 3211,
        "or\"": 3212,
        "suddenly": 3213,
        ".theplot": 3214,
        "fullof": 3215,
        "si": 3216,
        "relationship": 3217,
        "element": 3218,
        "timeand": 3219,
        ",his": 3220,
        "polic": 3221,
        "edonthe": 3222,
        "atre": 3223,
        "uture": 3224,
        "general": 3225,
        "seemstobe": 3226,
        "stories": 3227,
        "pen": 3228,
        "pil": 3229,
        "len": 3230,
        "tle": 3231,
        "pract": 3232,
        "acar": 3233,
        "alien": 3234,
        "laughable": 3235,
        "violent": 3236,
        "makeup": 3237,
        "allthat": 3238,
        "like\"": 3239,
        "esee": 3240,
        ",what": 3241,
        "isas": 3242,
        "lightly": 3243,
        "itjust": 3244,
        "uk": 3245,
        "\")": 3246,
        "verygood": 3247,
        "getthe": 3248,
        "depend": 3249,
        "erthan": 3250,
        "ction": 3251,
        "thosewho": 3252,
        "dan": 3253,
        "bers": 3254,
        ".that's": 3255,
        "thrown": 3256,
        "secre": 3257,
        "wayto": 3258,
        "random": 3259,
        "wash": 3260,
        "cru": 3261,
        "lady": 3262,
        "ony": 3263,
        "famous": 3264,
        "mare": 3265,
        "goon": 3266,
        "apoor": 3267,
        "youhave": 3268,
        "ker": 3269,
        "dr.": 3270,
        ":<br/><br/>": 3271,
        "concern": 3272,
        "inform": 3273,
        ",butnot": 3274,
        "hadto": 3275,
        "shows": 3276,
        "appearance": 3277,
        "iren": 3278,
        "mew": 3279,
        "bomb": 3280,
        "ken": 3281,
        "ocre": 3282,
        "company": 3283,
        ".<br/><br/>this": 3284,
        ".<br/><br/>and": 3285,
        "amin": 3286,
        "thinkthat": 3287,
        "fest": 3288,
        "outofthe": 3289,
        "onsense": 3290,
        "tryto": 3291,
        "esom": 3292,
        "(as": 3293,
        "generally": 3294,
        "ingthem": 3295,
        "abitof": 3296,
        "sme": 3297,
        "cann": 3298,
        "outthere": 3299,
        "camera": 3300,
        "thenext": 3301,
        "agroupof": 3302,
        "movies.": 3303,
        "boyfriend": 3304,
        "idiculous": 3305,
        "kick": 3306,
        "plent": 3307,
        "impossible": 3308,
        "isno": 3309,
        "voic": 3310,
        "it'sjust": 3311,
        "withe": 3312,
        "bytheway": 3313,
        "40": 3314,
        "sandthe": 3315,
        "arenot": 3316,
        "impl": 3317,
        "asmall": 3318,
        "typeof": 3319,
        "luc": 3320,
        "value": 3321,
        "madem": 3322,
        "glad": 3323,
        "actors,": 3324,
        "usedto": 3325,
        "characterdevelopment": 3326,
        "front": 3327,
        ",don't": 3328,
        "wasjust": 3329,
        "eventually": 3330,
        "positive": 3331,
        "skip": 3332,
        "steal": 3333,
        "trouble": 3334,
        "treat": 3335,
        "aff": 3336,
        "impression": 3337,
        "begin": 3338,
        "ountof": 3339,
        "films.": 3340,
        "loved": 3341,
        "apro": 3342,
        "foryou": 3343,
        "wit": 3344,
        "is,": 3345,
        "mix": 3346,
        "thy": 3347,
        "ifit": 3348,
        "prove": 3349,
        "allof": 3350,
        "anyon": 3351,
        ".therewas": 3352,
        "mom": 3353,
        "anold": 3354,
        "alive": 3355,
        "-off": 3356,
        "stem": 3357,
        "lake": 3358,
        "ifelt": 3359,
        "reveal": 3360,
        "eventhough": 3361,
        "andthey": 3362,
        "forit": 3363,
        "expected": 3364,
        "sil": 3365,
        "qual": 3366,
        ".she": 3367,
        "ety": 3368,
        "man's": 3369,
        "tar": 3370,
        "aboutit": 3371,
        "purpose": 3372,
        "grade": 3373,
        "100": 3374,
        "thefinal": 3375,
        "particular": 3376,
        "oftheir": 3377,
        "characters,": 3378,
        "vert": 3379,
        "onhis": 3380,
        "thatthis": 3381,
        "recent": 3382,
        "andy": 3383,
        "igive": 3384,
        "wolf": 3385,
        "appreci": 3386,
        "ague": 3387,
        "ively": 3388,
        ".maybe": 3389,
        "one-": 3390,
        "man,": 3391,
        "aguy": 3392,
        "enot": 3393,
        "ereal": 3394,
        "jerry": 3395,
        "somewhere": 3396,
        "term": 3397,
        "agre": 3398,
        "enever": 3399,
        "alld": 3400,
        "weget": 3401,
        ".is": 3402,
        "lor": 3403,
        "shew": 3404,
        "problemis": 3405,
        "acted": 3406,
        "inall": 3407,
        "adapt": 3408,
        "spring": 3409,
        "hunter": 3410,
        "requ": 3411,
        "ingat": 3412,
        "andd": 3413,
        "thatitwas": 3414,
        "repe": 3415,
        "lis": 3416,
        ".oh": 3417,
        "wild": 3418,
        "o-": 3419,
        "jam": 3420,
        "program": 3421,
        "eyes": 3422,
        "reli": 3423,
        "scon": 3424,
        "difficult": 3425,
        "personal": 3426,
        "iremember": 3427,
        "lege": 3428,
        "torture": 3429,
        "roc": 3430,
        "amore": 3431,
        "honestly": 3432,
        "characters.": 3433,
        "anal": 3434,
        "whatthey": 3435,
        "watchthis": 3436,
        "rest": 3437,
        "theway": 3438,
        "jes": 3439,
        "watchingthe": 3440,
        "cell": 3441,
        "itall": 3442,
        "producers": 3443,
        "thingthat": 3444,
        "ihaveseen": 3445,
        "opp": 3446,
        "ations": 3447,
        "ury": 3448,
        ")but": 3449,
        "erely": 3450,
        "seven": 3451,
        "exp": 3452,
        "card": 3453,
        "ageof": 3454,
        "garbage": 3455,
        "los": 3456,
        "pse": 3457,
        "scott": 3458,
        "game": 3459,
        "tobelieve": 3460,
        "loud": 3461,
        "idiot": 3462,
        "on,": 3463,
        "popular": 3464,
        "spl": 3465,
        "brilliant": 3466,
        "'thave": 3467,
        "econd": 3468,
        "ee": 3469,
        "army": 3470,
        "andover": 3471,
        "space": 3472,
        "spirit": 3473,
        "ingfrom": 3474,
        "made.": 3475,
        "so-": 3476,
        "film-": 3477,
        "well-": 3478,
        "proper": 3479,
        "fill": 3480,
        "appropri": 3481,
        "gover": 3482,
        "enjoyable": 3483,
        "neg": 3484,
        "again,": 3485,
        "invis": 3486,
        "oscar": 3487,
        "intri": 3488,
        ".<br/><br/>so": 3489,
        "spent": 3490,
        "intern": 3491,
        "studi": 3492,
        "becauseof": 3493,
        "tob": 3494,
        "becauseofthe": 3495,
        "becauseit": 3496,
        "entirely": 3497,
        "acy": 3498,
        "sci-f": 3499,
        "edidn't": 3500,
        "ilik": 3501,
        "subst": 3502,
        "we're": 3503,
        "iou": 3504,
        "thatare": 3505,
        "iec": 3506,
        "costum": 3507,
        "istry": 3508,
        "planet": 3509,
        "ingis": 3510,
        "yearsago": 3511,
        "hav": 3512,
        "13": 3513,
        "conf": 3514,
        "andh": 3515,
        "rend": 3516,
        "),but": 3517,
        "mustbe": 3518,
        "truth": 3519,
        "devil": 3520,
        "attimes": 3521,
        "bling": 3522,
        "on-": 3523,
        "immedi": 3524,
        "business": 3525,
        "sick": 3526,
        "wooden": 3527,
        "eli": 3528,
        "cogn": 3529,
        "agh": 3530,
        "million": 3531,
        "fi": 3532,
        "attractive": 3533,
        "time,": 3534,
        "spot": 3535,
        "sdown": 3536,
        "\",\"": 3537,
        "osaur": 3538,
        "witch": 3539,
        "poil": 3540,
        "hadbeen": 3541,
        "toshow": 3542,
        "totake": 3543,
        "endup": 3544,
        "sitthrough": 3545,
        "thereisno": 3546,
        "swe": 3547,
        "i'msure": 3548,
        "allen": 3549,
        "youwill": 3550,
        "ment.": 3551,
        "bob": 3552,
        "agent": 3553,
        "inthat": 3554,
        "carry": 3555,
        "moving": 3556,
        "anch": 3557,
        "toutof": 3558,
        "alongwith": 3559,
        "mr": 3560,
        "profession": 3561,
        "herent": 3562,
        "cant": 3563,
        ",buthe": 3564,
        "cy": 3565,
        "occasion": 3566,
        "itor": 3567,
        ".<br/><br/>as": 3568,
        "road": 3569,
        "storyis": 3570,
        "jason": 3571,
        "shere": 3572,
        "fool": 3573,
        "wasnot": 3574,
        "arily": 3575,
        ".these": 3576,
        "create": 3577,
        "convincing": 3578,
        "italian": 3579,
        "disturb": 3580,
        "ooby": 3581,
        "'vebeen": 3582,
        "ubbish": 3583,
        "ooking": 3584,
        "chance": 3585,
        "b-": 3586,
        "draw": 3587,
        "uses": 3588,
        "believethat": 3589,
        "mystery": 3590,
        "aplot": 3591,
        ".inthe": 3592,
        ")<br/><br/>": 3593,
        "orn": 3594,
        "author": 3595,
        "focus": 3596,
        "akid": 3597,
        "sover": 3598,
        "note": 3599,
        "grad": 3600,
        "aint": 3601,
        "icking": 3602,
        "upand": 3603,
        "flu": 3604,
        "shes": 3605,
        "sume": 3606,
        "fairly": 3607,
        "gory": 3608,
        "tothem": 3609,
        "legend": 3610,
        "fiction": 3611,
        "inorder": 3612,
        "noon": 3613,
        "togive": 3614,
        "lick": 3615,
        "apr": 3616,
        "scould": 3617,
        "moviethat": 3618,
        "ounter": 3619,
        "secret": 3620,
        ",however": 3621,
        "ruin": 3622,
        "arethe": 3623,
        "somec": 3624,
        "realize": 3625,
        "german": 3626,
        "oose": 3627,
        "thenew": 3628,
        ",ifyou": 3629,
        "youcould": 3630,
        "conclusion": 3631,
        "atrix": 3632,
        ",andit": 3633,
        "andthere": 3634,
        "uppose": 3635,
        "likable": 3636,
        "crazy": 3637,
        "iliar": 3638,
        "icannot": 3639,
        "amus": 3640,
        "1/": 3641,
        "jim": 3642,
        "basic": 3643,
        "mes": 3644,
        "meaning": 3645,
        "urch": 3646,
        "asty": 3647,
        "orsomething": 3648,
        "isay": 3649,
        "in'": 3650,
        "cinematography": 3651,
        "alow": 3652,
        "ajor": 3653,
        "thatit's": 3654,
        "umberof": 3655,
        ",why": 3656,
        "irty": 3657,
        "inept": 3658,
        "disgust": 3659,
        "theirown": 3660,
        "alking": 3661,
        "ope": 3662,
        "nobody": 3663,
        "narr": 3664,
        "ando": 3665,
        "theme": 3666,
        "forgett": 3667,
        "moves": 3668,
        "blame": 3669,
        "fake": 3670,
        "single": 3671,
        "acomedy": 3672,
        "stink": 3673,
        "nowhere": 3674,
        "chemistry": 3675,
        ",butthis": 3676,
        "wif": 3677,
        "newyork": 3678,
        "acre": 3679,
        "thismovie,": 3680,
        "experiment": 3681,
        "omen": 3682,
        "stri": 3683,
        "thehell": 3684,
        "achance": 3685,
        "paid": 3686,
        "idon": 3687,
        "amed": 3688,
        "rad": 3689,
        "sow": 3690,
        "orm": 3691,
        "seethe": 3692,
        "amountof": 3693,
        "supposedly": 3694,
        "thisone.": 3695,
        "aland": 3696,
        "animated": 3697,
        "sant": 3698,
        "hic": 3699,
        "aboutas": 3700,
        "uper": 3701,
        "theentire": 3702,
        "eturn": 3703,
        "glas": 3704,
        "atleas": 3705,
        "ory": 3706,
        "highschool": 3707,
        "educ": 3708,
        "a'": 3709,
        "thefir": 3710,
        "hilarious": 3711,
        "illd": 3712,
        "heaven": 3713,
        "decide": 3714,
        "!the": 3715,
        "sun": 3716,
        "anyother": 3717,
        "political": 3718,
        "langu": 3719,
        "addition": 3720,
        "ofmy": 3721,
        "toher": 3722,
        "assic": 3723,
        "nof": 3724,
        "madeit": 3725,
        "girls": 3726,
        "-in": 3727,
        ",an": 3728,
        "catch": 3729,
        "flaw": 3730,
        "ron": 3731,
        "ityand": 3732,
        "ofcourse,": 3733,
        "watchable": 3734,
        "unnecessary": 3735,
        "ovi": 3736,
        "comesto": 3737,
        "otherwise": 3738,
        "edon't": 3739,
        "-out": 3740,
        "compar": 3741,
        ",d": 3742,
        "chuck": 3743,
        "discover": 3744,
        "inner": 3745,
        "couple": 3746,
        "lookat": 3747,
        "femal": 3748,
        "indian": 3749,
        "bak": 3750,
        "hated": 3751,
        "goingtobe": 3752,
        "bal": 3753,
        "isin": 3754,
        "noone": 3755,
        "foran": 3756,
        "thisisnot": 3757,
        "liketo": 3758,
        "guard": 3759,
        "opport": 3760,
        "greatest": 3761,
        "listen": 3762,
        "ges": 3763,
        "producer": 3764,
        "sadly": 3765,
        "social": 3766,
        "amy": 3767,
        "puter": 3768,
        "atmosphere": 3769,
        "escenes": 3770,
        "athis": 3771,
        "wonderful": 3772,
        ",'": 3773,
        "var": 3774,
        "atu": 3775,
        ",although": 3776,
        "acharacter": 3777,
        "expecting": 3778,
        "thered": 3779,
        "aboutthis": 3780,
        "corn": 3781,
        "arl": 3782,
        "asas": 3783,
        "blah": 3784,
        "themusic": 3785,
        "aspec": 3786,
        "motiv": 3787,
        "theshow": 3788,
        "rog": 3789,
        "that,": 3790,
        "execut": 3791,
        "bland": 3792,
        "somebody": 3793,
        "former": 3794,
        "cus": 3795,
        "ahuge": 3796,
        "-but": 3797,
        "ugly": 3798,
        "80's": 3799,
        "kidn": 3800,
        "ellyou": 3801,
        "grace": 3802,
        "jenn": 3803,
        "capture": 3804,
        "shouldhavebeen": 3805,
        "senseof": 3806,
        "surprise": 3807,
        "itwould": 3808,
        "ior": 3809,
        "havi": 3810,
        "itfor": 3811,
        "who's": 3812,
        ".infact": 3813,
        "whatthe": 3814,
        "irrit": 3815,
        "hang": 3816,
        "bled": 3817,
        "dialogu": 3818,
        "inch": 3819,
        "ifference": 3820,
        "indust": 3821,
        "audienc": 3822,
        "sort": 3823,
        "tour": 3824,
        "force": 3825,
        "?and": 3826,
        ",after": 3827,
        "loves": 3828,
        "io": 3829,
        "themoviewas": 3830,
        ".its": 3831,
        "fighting": 3832,
        "attemptto": 3833,
        "chool": 3834,
        "herself": 3835,
        "inder": 3836,
        ".<br/><br/>my": 3837,
        ".<br/><br/>it's": 3838,
        "ole": 3839,
        "ibal": 3840,
        "atbest": 3841,
        "zero": 3842,
        "a1": 3843,
        "rate": 3844,
        "...the": 3845,
        "dem": 3846,
        "cause": 3847,
        "kin": 3848,
        "muchof": 3849,
        "life.": 3850,
        "behavi": 3851,
        "hip": 3852,
        "mall": 3853,
        ",really": 3854,
        "amon": 3855,
        "pers": 3856,
        "eventhe": 3857,
        "cry": 3858,
        "eat": 3859,
        "enjoyed": 3860,
        "wantsto": 3861,
        "-old": 3862,
        "hack": 3863,
        "creature": 3864,
        "fashion": 3865,
        "eneed": 3866,
        "seless": 3867,
        "talented": 3868,
        "aine": 3869,
        ".iwould": 3870,
        "deserves": 3871,
        "interview": 3872,
        "bs": 3873,
        "deep": 3874,
        "you'd": 3875,
        "toit": 3876,
        "fine": 3877,
        "soph": 3878,
        "graphic": 3879,
        "actingand": 3880,
        "ended": 3881,
        "-to-": 3882,
        "onething": 3883,
        "thesound": 3884,
        "choice": 3885,
        "hitler": 3886,
        "surely": 3887,
        "immediately": 3888,
        "jackson": 3889,
        "oned": 3890,
        "prim": 3891,
        "compl": 3892,
        "backtothe": 3893,
        "shehas": 3894,
        "ilt": 3895,
        "remote": 3896,
        "miser": 3897,
        "virt": 3898,
        "pan": 3899,
        "s...": 3900,
        "wn": 3901,
        "represent": 3902,
        "unfunny": 3903,
        "marri": 3904,
        "speaking": 3905,
        "emp": 3906,
        "angry": 3907,
        "pup": 3908,
        "2)": 3909,
        "ream": 3910,
        "leading": 3911,
        ",where": 3912,
        "involving": 3913,
        "eem": 3914,
        "achother": 3915,
        "caus": 3916,
        "spect": 3917,
        "ric": 3918,
        "partofthe": 3919,
        "i.": 3920,
        "mood": 3921,
        "knowthat": 3922,
        "whenhe": 3923,
        "triedto": 3924,
        "intheworld": 3925,
        "compared": 3926,
        "redeeming": 3927,
        "theworstmovie": 3928,
        "me.": 3929,
        "tokeep": 3930,
        "familiar": 3931,
        "evenmore": 3932,
        "sle": 3933,
        "70": 3934,
        "amazing": 3935,
        "revenge": 3936,
        "moon": 3937,
        "charactersand": 3938,
        "typical": 3939,
        "-of": 3940,
        "missing": 3941,
        "location": 3942,
        "heavy": 3943,
        "sthem": 3944,
        ",w": 3945,
        "rain": 3946,
        "jour": 3947,
        "atotal": 3948,
        "goeson": 3949,
        "irt": 3950,
        "kev": 3951,
        "bizarre": 3952,
        "mentioned": 3953,
        "agirl": 3954,
        "shed": 3955,
        "thand": 3956,
        "bab": 3957,
        "scooby": 3958,
        "thatwould": 3959,
        "stars": 3960,
        "toput": 3961,
        "dance": 3962,
        "nature": 3963,
        "entially": 3964,
        "thanthe": 3965,
        "investig": 3966,
        "sthatare": 3967,
        ",000": 3968,
        "ington": 3969,
        "result": 3970,
        "sequences": 3971,
        "zen": 3972,
        "destroy": 3973,
        "avel": 3974,
        "that.": 3975,
        "spoiler": 3976,
        "fanof": 3977,
        "60": 3978,
        "drama": 3979,
        "offthe": 3980,
        "co-": 3981,
        "franc": 3982,
        "aroundthe": 3983,
        "ization": 3984,
        "omin": 3985,
        "crew": 3986,
        "became": 3987,
        "whathe": 3988,
        "andin": 3989,
        "manner": 3990,
        "within": 3991,
        "istill": 3992,
        "match": 3993,
        "directedby": 3994,
        "humour": 3995,
        "course": 3996,
        "future": 3997,
        "mouth": 3998,
        "icr": 3999,
        "encounter": 4000,
        "obs": 4001,
        "ofthisfilm": 4002,
        "inside": 4003,
        "brief": 4004,
        "nothave": 4005,
        "remake": 4006,
        "whichwas": 4007,
        "appeared": 4008,
        "bvious": 4009,
        "doyou": 4010,
        "similar": 4011,
        "freddy": 4012,
        "elling": 4013,
        "atall.": 4014,
        ".thescript": 4015,
        "withsome": 4016,
        "aging": 4017,
        "cannot": 4018,
        "respons": 4019,
        "buthe": 4020,
        "sthis": 4021,
        "minutes.": 4022,
        "hardto": 4023,
        "characteris": 4024,
        "(\"": 4025,
        "hisown": 4026,
        "suff": 4027,
        "-like": 4028,
        "ocking": 4029,
        "reach": 4030,
        "porter": 4031,
        "numb": 4032,
        "frontof": 4033,
        "ift": 4034,
        "establ": 4035,
        ".her": 4036,
        "ercial": 4037,
        "forever": 4038,
        "ontheother": 4039,
        "boring.": 4040,
        "large": 4041,
        "igno": 4042,
        "over-": 4043,
        "wasteyourtime": 4044,
        "reak": 4045,
        "onde": 4046,
        "onec": 4047,
        "forhim": 4048,
        "severy": 4049,
        "attemptat": 4050,
        "preh": 4051,
        "agoodmovie": 4052,
        "ancy": 4053,
        "whoare": 4054,
        "lier": 4055,
        "lid": 4056,
        "loose": 4057,
        "stein": 4058,
        "resem": 4059,
        "istr": 4060,
        "verymuch": 4061,
        "indi": 4062,
        "spac": 4063,
        "whilethe": 4064,
        "contr": 4065,
        "again.": 4066,
        "curi": 4067,
        "lets": 4068,
        "agonist": 4069,
        "amateurish": 4070,
        ".....": 4071,
        "abouthow": 4072,
        "deserve": 4073,
        "intrigu": 4074,
        "termin": 4075,
        "stock": 4076,
        "historical": 4077,
        "threat": 4078,
        "strang": 4079,
        "ti": 4080,
        "versionof": 4081,
        "techn": 4082,
        "here.": 4083,
        "means": 4084,
        "friends": 4085,
        ",her": 4086,
        "everybody": 4087,
        "werenot": 4088,
        "imensional": 4089,
        "demon": 4090,
        "ionof": 4091,
        "literally": 4092,
        ".thereisno": 4093,
        "cen": 4094,
        "ed,and": 4095,
        "riesto": 4096,
        "approach": 4097,
        "asingle": 4098,
        "iny": 4099,
        "content": 4100,
        "'sex": 4101,
        "ainthe": 4102,
        "strugg": 4103,
        "ialso": 4104,
        "endless": 4105,
        "bow": 4106,
        "anation": 4107,
        "becausethey": 4108,
        "sters": 4109,
        "thad": 4110,
        "movies,": 4111,
        "lement": 4112,
        "disappointing": 4113,
        "justplain": 4114,
        ",butthen": 4115,
        "orthe": 4116,
        ",all": 4117,
        "tension": 4118,
        "cord": 4119,
        "useof": 4120,
        "essor": 4121,
        "estar": 4122,
        "eson": 4123,
        "scenesare": 4124,
        "soul": 4125,
        "watchedit": 4126,
        "themoney": 4127,
        "lessthan": 4128,
        "duce": 4129,
        "igave": 4130,
        "thismoviehas": 4131,
        "inct": 4132,
        "itdoesn't": 4133,
        "thorror": 4134,
        "below": 4135,
        "totell": 4136,
        "zombi": 4137,
        "inish": 4138,
        "bottom": 4139,
        "cow": 4140,
        "brid": 4141,
        "bought": 4142,
        "gren": 4143,
        "wann": 4144,
        "istheonly": 4145,
        "tokill": 4146,
        "credits": 4147,
        "unintention": 4148,
        "mir": 4149,
        "taste": 4150,
        "others": 4151,
        "color": 4152,
        "11": 4153,
        "amor": 4154,
        "to\"": 4155,
        "freeman": 4156,
        "la": 4157,
        "recogn": 4158,
        "won": 4159,
        "ength": 4160,
        "clude": 4161,
        "weret": 4162,
        ",butthey": 4163,
        "finish": 4164,
        "a2": 4165,
        "aware": 4166,
        "achild": 4167,
        "???": 4168,
        "isthis": 4169,
        "norm": 4170,
        "toolong": 4171,
        "ontin": 4172,
        "remotely": 4173,
        "mentof": 4174,
        "ypical": 4175,
        "oppos": 4176,
        "acop": 4177,
        "coherent": 4178,
        "atone": 4179,
        "cal": 4180,
        ",she": 4181,
        "lex": 4182,
        "ez": 4183,
        "europe": 4184,
        "193": 4185,
        ".<br/><br/>thefilm": 4186,
        "escape": 4187,
        "gam": 4188,
        "falls": 4189,
        "elaugh": 4190,
        "hat": 4191,
        "somed": 4192,
        "'shard": 4193,
        "worstof": 4194,
        "somekindof": 4195,
        "junk": 4196,
        "abb": 4197,
        "inthemiddle": 4198,
        "battle": 4199,
        "ideaof": 4200,
        "esin": 4201,
        "escap": 4202,
        "readful": 4203,
        "intelligent": 4204,
        "andfor": 4205,
        "affair": 4206,
        "jesus": 4207,
        "pie": 4208,
        "eser": 4209,
        "wanttosee": 4210,
        "andthat": 4211,
        "guys": 4212,
        "chase": 4213,
        "weap": 4214,
        ".<br/><br/>\"": 4215,
        "mass": 4216,
        "soundtrack": 4217,
        "awhole": 4218,
        "atthis": 4219,
        "writtenby": 4220,
        "inspir": 4221,
        "princ": 4222,
        "anth": 4223,
        "anybody": 4224,
        "uri": 4225,
        "ging": 4226,
        "twent": 4227,
        "ored": 4228,
        "itas": 4229,
        "asbad": 4230,
        "asgood": 4231,
        "intelligence": 4232,
        "release": 4233,
        "endsup": 4234,
        "christian": 4235,
        "scenes,": 4236,
        "pretent": 4237,
        "rant": 4238,
        "--and": 4239,
        "y(": 4240,
        "sean": 4241,
        ",butit's": 4242,
        "invisible": 4243,
        "lud": 4244,
        "aterrible": 4245,
        "ooks": 4246,
        "absolutelyno": 4247,
        "eway": 4248,
        "trailer": 4249,
        "twohour": 4250,
        "members": 4251,
        "verylittle": 4252,
        "omuch": 4253,
        "putting": 4254,
        "clever": 4255,
        "shor": 4256,
        "bright": 4257,
        "decidedto": 4258,
        "yearslater": 4259,
        "aud": 4260,
        "ced": 4261,
        "somesortof": 4262,
        "drunk": 4263,
        "deli": 4264,
        "itwouldbe": 4265,
        "aft": 4266,
        "thathis": 4267,
        "imilar": 4268,
        "uppos": 4269,
        "loss": 4270,
        "3/10": 4271,
        "bon": 4272,
        "politic": 4273,
        "oftheoriginal": 4274,
        ",how": 4275,
        "tother": 4276,
        "wholething": 4277,
        "baby": 4278,
        "rif": 4279,
        ".to": 4280,
        "wesee": 4281,
        "attemptsto": 4282,
        "frust": 4283,
        "lesbian": 4284,
        "***": 4285,
        "dress": 4286,
        "west": 4287,
        "loor": 4288,
        "rew": 4289,
        "suspect": 4290,
        "atl": 4291,
        "inghim": 4292,
        "ify": 4293,
        "independ": 4294,
        "soldi": 4295,
        "shop": 4296,
        "six": 4297,
        "brut": 4298,
        "ordin": 4299,
        "andm": 4300,
        "liché": 4301,
        "i's": 4302,
        "inand": 4303,
        "amajor": 4304,
        "rubbish": 4305,
        "imple": 4306,
        "watchingit": 4307,
        "don'tget": 4308,
        "aperson": 4309,
        "welld": 4310,
        "exampleof": 4311,
        "ening": 4312,
        "strip": 4313,
        "appall": 4314,
        "compreh": 4315,
        "withoutany": 4316,
        "evermade": 4317,
        "agen": 4318,
        "insight": 4319,
        "ascene": 4320,
        "presence": 4321,
        "jef": 4322,
        "lesh": 4323,
        "ember": 4324,
        ".thefirst": 4325,
        "somem": 4326,
        "lever": 4327,
        ".<br/><br/>thisis": 4328,
        "suit": 4329,
        "thebiggest": 4330,
        "assume": 4331,
        "doesn'": 4332,
        "viewing": 4333,
        "wend": 4334,
        "ishould": 4335,
        "hadthe": 4336,
        ",n": 4337,
        ".imean": 4338,
        "goesto": 4339,
        "govern": 4340,
        "apartfrom": 4341,
        ",thereis": 4342,
        "sexy": 4343,
        "longer": 4344,
        "atfirst": 4345,
        "theatre": 4346,
        "une": 4347,
        "commercial": 4348,
        "ultimately": 4349,
        "plentyof": 4350,
        "onscreen": 4351,
        ";the": 4352,
        "ashame": 4353,
        "oughly": 4354,
        "curity": 4355,
        "wasso": 4356,
        "uine": 4357,
        "avour": 4358,
        "ollywood": 4359,
        "boringand": 4360,
        "thingsthat": 4361,
        "filmed": 4362,
        "agger": 4363,
        "comedies": 4364,
        ".theactingis": 4365,
        "butnot": 4366,
        "control": 4367,
        "wondering": 4368,
        "aswellas": 4369,
        "olic": 4370,
        "drive": 4371,
        "juli": 4372,
        "indic": 4373,
        "flashback": 4374,
        "ondon": 4375,
        "ornot": 4376,
        "funn": 4377,
        "ces": 4378,
        "thanthis": 4379,
        "het": 4380,
        "canad": 4381,
        "thati": 4382,
        "block": 4383,
        "thereason": 4384,
        "12": 4385,
        "freak": 4386,
        "4/10": 4387,
        "itous": 4388,
        ",only": 4389,
        "'and": 4390,
        "inevery": 4391,
        "ples": 4392,
        "standing": 4393,
        "itsown": 4394,
        "theleast": 4395,
        "towork": 4396,
        "aside": 4397,
        "leaving": 4398,
        "boring,": 4399,
        "st3": 4400,
        "acad": 4401,
        "andahalf": 4402,
        "atethe": 4403,
        "feelslike": 4404,
        "impressive": 4405,
        ".<br/><br/>in": 4406,
        "problemwith": 4407,
        "movie.<br/><br/>": 4408,
        "peopleare": 4409,
        "univers": 4410,
        "forthat": 4411,
        "douglas": 4412,
        "surround": 4413,
        "forcedto": 4414,
        "eres": 4415,
        "forgettable": 4416,
        "culture": 4417,
        "cir": 4418,
        "apoint": 4419,
        "comfort": 4420,
        "),the": 4421,
        "eye": 4422,
        ".\"<br/><br/>": 4423,
        "ision": 4424,
        "evid": 4425,
        "failsto": 4426,
        "thetime": 4427,
        "started": 4428,
        "withas": 4429,
        "azz": 4430,
        "wanted": 4431,
        "pace": 4432,
        "iller": 4433,
        "thatone": 4434,
        "gment": 4435,
        "highly": 4436,
        "tough": 4437,
        "filled": 4438,
        "joedon": 4439,
        "cher": 4440,
        "accord": 4441,
        "explanation": 4442,
        "notice": 4443,
        "nomatter": 4444,
        "kate": 4445,
        "(who": 4446,
        "drag": 4447,
        "neigh": 4448,
        "satisf": 4449,
        "anythingelse": 4450,
        "acomed": 4451,
        "outside": 4452,
        "model": 4453,
        "alent": 4454,
        "showing": 4455,
        "bitof": 4456,
        "ological": 4457,
        "mat": 4458,
        "andmore": 4459,
        "rat": 4460,
        "ireal": 4461,
        "field": 4462,
        "iet": 4463,
        "tired": 4464,
        "ity.": 4465,
        "moviesand": 4466,
        "iloved": 4467,
        "interesting.": 4468,
        "ollar": 4469,
        "esty": 4470,
        "describe": 4471,
        "gow": 4472,
        "trust": 4473,
        "creepy": 4474,
        ".instead": 4475,
        "stretch": 4476,
        "assum": 4477,
        "romance": 4478,
        "ante": 4479,
        "ewould": 4480,
        "theyhave": 4481,
        "there.": 4482,
        "french": 4483,
        "actorsare": 4484,
        "grave": 4485,
        "livi": 4486,
        "squ": 4487,
        "simple": 4488,
        "apher": 4489,
        "paper": 4490,
        "bell": 4491,
        "atallcost": 4492,
        "depress": 4493,
        "roat": 4494,
        "needed": 4495,
        "sjust": 4496,
        "ffect": 4497,
        "whop": 4498,
        "funny.": 4499,
        "somen": 4500,
        "theaudience": 4501,
        "sens": 4502,
        "proceed": 4503,
        "ised": 4504,
        "film.<br/><br/>": 4505,
        "year-old": 4506,
        "ishard": 4507,
        "grant": 4508,
        "isabout": 4509,
        "hicle": 4510,
        "acul": 4511,
        "shark": 4512,
        "agic": 4513,
        "bog": 4514,
        "dig": 4515,
        "ofthismovie": 4516,
        "outthe": 4517,
        "filmthat": 4518,
        ".theacting": 4519,
        "andsh": 4520,
        "amess": 4521,
        "swhich": 4522,
        "y\"": 4523,
        "christop": 4524,
        "inlove": 4525,
        "forno": 4526,
        "spital": 4527,
        "hide": 4528,
        "explic": 4529,
        "pack": 4530,
        "inginthe": 4531,
        "asequel": 4532,
        "gress": 4533,
        "damn": 4534,
        "orrible": 4535,
        "asmuch": 4536,
        "ledge": 4537,
        "syou": 4538,
        "ders": 4539,
        "rece": 4540,
        "tries": 4541,
        "charles": 4542,
        "tooth": 4543,
        "military": 4544,
        "smith": 4545,
        "constantly": 4546,
        "waitingfor": 4547,
        "mediocre": 4548,
        "iac": 4549,
        "crappy": 4550,
        "jon": 4551,
        "icted": 4552,
        "atthetime": 4553,
        "amuch": 4554,
        "ban": 4555,
        "atives": 4556,
        "good.": 4557,
        "work.": 4558,
        "ran": 4559,
        "ibility": 4560,
        "one.": 4561,
        "stephen": 4562,
        "romantic": 4563,
        "thatmakes": 4564,
        "stalk": 4565,
        "criminal": 4566,
        "atthat": 4567,
        "knowhow": 4568,
        "aboutit.": 4569,
        "gal": 4570,
        "-for": 4571,
        "born": 4572,
        "alex": 4573,
        "acheap": 4574,
        "sonthe": 4575,
        "cannibal": 4576,
        "emal": 4577,
        "areyou": 4578,
        "sou": 4579,
        "relig": 4580,
        "aved": 4581,
        "irented": 4582,
        "kn": 4583,
        ",very": 4584,
        "itz": 4585,
        "garbage.": 4586,
        "base": 4587,
        "gent": 4588,
        "hh": 4589,
        "\".<br/><br/>": 4590,
        "watchthismovie": 4591,
        "scenes.": 4592,
        "george": 4593,
        "ius": 4594,
        "industry": 4595,
        "whot": 4596,
        "theycan": 4597,
        "seeit": 4598,
        "prep": 4599,
        "seemingly": 4600,
        "assin": 4601,
        "ady": 4602,
        "emade": 4603,
        "andeven": 4604,
        "pun": 4605,
        "youdon't": 4606,
        "lap": 4607,
        "drawn": 4608,
        "ecan't": 4609,
        ",yet": 4610,
        "seemslike": 4611,
        "rist": 4612,
        "verse": 4613,
        "lynch": 4614,
        "smo": 4615,
        "union": 4616,
        "ityof": 4617,
        "them.": 4618,
        "st3k": 4619,
        "adoc": 4620,
        "alt": 4621,
        "andhas": 4622,
        "this\"": 4623,
        "sympath": 4624,
        "various": 4625,
        "lito": 4626,
        "shimself": 4627,
        "ageto": 4628,
        "adaptation": 4629,
        "vey": 4630,
        "s,\"": 4631,
        "christopher": 4632,
        "added": 4633,
        "soun": 4634,
        "plane": 4635,
        "elo": 4636,
        ".some": 4637,
        "flict": 4638,
        "fora": 4639,
        "you've": 4640,
        "giant": 4641,
        "uring": 4642,
        "starring": 4643,
        "ways": 4644,
        "hasthe": 4645,
        "proves": 4646,
        "undred": 4647,
        "fresh": 4648,
        "lay": 4649,
        "edwiththe": 4650,
        "alist": 4651,
        "'the": 4652,
        "athing": 4653,
        "thatitis": 4654,
        "sequenc": 4655,
        "ontheotherhand": 4656,
        "yl": 4657,
        "irth": 4658,
        "hurt": 4659,
        ",i'm": 4660,
        "effective": 4661,
        "theseries": 4662,
        "fat": 4663,
        "ashow": 4664,
        "youmight": 4665,
        ".idon't": 4666,
        "gain": 4667,
        "formula": 4668,
        ",iwould": 4669,
        "afamily": 4670,
        "audiences": 4671,
        "titles": 4672,
        "mainly": 4673,
        "moviec": 4674,
        "ousy": 4675,
        "cometo": 4676,
        "knows": 4677,
        "gordon": 4678,
        "udd": 4679,
        "ingaround": 4680,
        "flow": 4681,
        "isreally": 4682,
        "tonthe": 4683,
        "actres": 4684,
        "advice": 4685,
        "stan": 4686,
        "correct": 4687,
        "believeme": 4688,
        "organ": 4689,
        "creen": 4690,
        "youget": 4691,
        "5minutes": 4692,
        "jess": 4693,
        "on.": 4694,
        "expectation": 4695,
        "arer": 4696,
        "crack": 4697,
        "paint": 4698,
        "1.": 4699,
        "edhis": 4700,
        "isand": 4701,
        ".theyare": 4702,
        ".<br/><br/>what": 4703,
        "mob": 4704,
        "naked": 4705,
        ",b": 4706,
        "comeupwith": 4707,
        "hould": 4708,
        "chore": 4709,
        "itup": 4710,
        "hob": 4711,
        "professional": 4712,
        "allthis": 4713,
        "buff": 4714,
        "thecar": 4715,
        "ulf": 4716,
        "total": 4717,
        "justice": 4718,
        "erc": 4719,
        "wast": 4720,
        "account": 4721,
        "imagination": 4722,
        "wearing": 4723,
        "opportunity": 4724,
        "tobegin": 4725,
        "ert": 4726,
        "security": 4727,
        "piso": 4728,
        "doubt": 4729,
        "scene.": 4730,
        "becauseitwas": 4731,
        "cel": 4732,
        "eves": 4733,
        "etic": 4734,
        "contrived": 4735,
        "itreally": 4736,
        "andjust": 4737,
        "compare": 4738,
        "support": 4739,
        "anice": 4740,
        "logic": 4741,
        "icansay": 4742,
        "craz": 4743,
        "ming": 4744,
        "send": 4745,
        "forgotten": 4746,
        "peak": 4747,
        "iread": 4748,
        "london": 4749,
        "swer": 4750,
        "inever": 4751,
        "hehad": 4752,
        "church": 4753,
        "makesense": 4754,
        "rush": 4755,
        "managesto": 4756,
        "ligh": 4757,
        "ette": 4758,
        "story.": 4759,
        "ancient": 4760,
        "lived": 4761,
        "state": 4762,
        "asare": 4763,
        "ialart": 4764,
        ".while": 4765,
        "rick": 4766,
        "enight": 4767,
        "patr": 4768,
        "anton": 4769,
        "edher": 4770,
        "including": 4771,
        "considering": 4772,
        "seemedto": 4773,
        "released": 4774,
        "plot,": 4775,
        "inthebook": 4776,
        "readthebook": 4777,
        ".<br/><br/>theonly": 4778,
        "ignor": 4779,
        "didthey": 4780,
        "tomy": 4781,
        "advert": 4782,
        "forsom": 4783,
        "ower": 4784,
        "uous": 4785,
        "inthiscase": 4786,
        "says": 4787,
        "estof": 4788,
        "merely": 4789,
        "dry": 4790,
        "onher": 4791,
        "kward": 4792,
        "natural": 4793,
        ".<br/><br/>ifyou": 4794,
        "photograph": 4795,
        ",by": 4796,
        "asleep": 4797,
        "somegood": 4798,
        "1/2": 4799,
        "competent": 4800,
        "cruc": 4801,
        "thefamily": 4802,
        "thisisthe": 4803,
        "pless": 4804,
        "uman": 4805,
        "reck": 4806,
        "makeyou": 4807,
        "atedby": 4808,
        "managedto": 4809,
        "isun": 4810,
        "consc": 4811,
        "iwouldn't": 4812,
        "pretentious": 4813,
        "udo": 4814,
        "eshis": 4815,
        "robot": 4816,
        "alaugh": 4817,
        "itoff": 4818,
        ".it'snot": 4819,
        "besides": 4820,
        "umer": 4821,
        "cate": 4822,
        ".s.": 4823,
        "acomple": 4824,
        "test": 4825,
        "thefilmwas": 4826,
        "japanes": 4827,
        "o'": 4828,
        "ity,": 4829,
        "works": 4830,
        "remain": 4831,
        "pitch": 4832,
        "na": 4833,
        "stal": 4834,
        "sthalf": 4835,
        "process": 4836,
        "neck": 4837,
        "agand": 4838,
        "idonot": 4839,
        "nonsense": 4840,
        "underthe": 4841,
        "aqu": 4842,
        "stuck": 4843,
        "hotel": 4844,
        "amusing": 4845,
        "atroc": 4846,
        "desire": 4847,
        "computer": 4848,
        ".iknow": 4849,
        "stood": 4850,
        "themon": 4851,
        "artistic": 4852,
        "dinosaur": 4853,
        "here's": 4854,
        "justhow": 4855,
        "s.it's": 4856,
        "ilities": 4857,
        "videostore": 4858,
        "mistake": 4859,
        "position": 4860,
        "uccess": 4861,
        "ective": 4862,
        "zo": 4863,
        ",andthat": 4864,
        "oubt": 4865,
        "edlike": 4866,
        "pleasant": 4867,
        "inking": 4868,
        "from\"": 4869,
        "letter": 4870,
        "understandwhy": 4871,
        "minor": 4872,
        "ario": 4873,
        "hereis": 4874,
        ",are": 4875,
        "thatof": 4876,
        ".we": 4877,
        "ms.": 4878,
        "behavior": 4879,
        "mighthave": 4880,
        "number": 4881,
        "inany": 4882,
        "ludicr": 4883,
        "forthemost": 4884,
        ".theplotis": 4885,
        "nold": 4886,
        "theyhad": 4887,
        "ididnot": 4888,
        "studio": 4889,
        "practically": 4890,
        "1)": 4891,
        "sitting": 4892,
        "sub-": 4893,
        "thow": 4894,
        "thetitle": 4895,
        "atory": 4896,
        "provid": 4897,
        "intellect": 4898,
        "beingthe": 4899,
        "thisfilm,": 4900,
        "disaster": 4901,
        "beendone": 4902,
        "smart": 4903,
        "areason": 4904,
        "assassin": 4905,
        "ifind": 4906,
        "rot": 4907,
        "ooper": 4908,
        "century": 4909,
        "wheniwas": 4910,
        "bad,": 4911,
        "vac": 4912,
        "assist": 4913,
        "steve": 4914,
        "remark": 4915,
        "ured": 4916,
        "i'ma": 4917,
        "musthave": 4918,
        "rupt": 4919,
        "umor": 4920,
        "hasto": 4921,
        "barry": 4922,
        "painfully": 4923,
        "blonde": 4924,
        "izing": 4925,
        "carlito": 4926,
        "younger": 4927,
        "distr": 4928,
        "lean": 4929,
        "asad": 4930,
        "wrongwith": 4931,
        "udge": 4932,
        ".ihad": 4933,
        "s.but": 4934,
        "female": 4935,
        "earn": 4936,
        "goof": 4937,
        "interm": 4938,
        ".<br/><br/>thereare": 4939,
        "ahand": 4940,
        "moviesthat": 4941,
        "vari": 4942,
        "stor": 4943,
        "gratu": 4944,
        "reallife": 4945,
        "mewrong": 4946,
        "offensive": 4947,
        "ahug": 4948,
        "tradition": 4949,
        "haun": 4950,
        "responsible": 4951,
        "expression": 4952,
        ";and": 4953,
        "disc": 4954,
        "heroine": 4955,
        "disappointment": 4956,
        "itude": 4957,
        "personally": 4958,
        "this.": 4959,
        "uggl": 4960,
        "estill": 4961,
        "johnny": 4962,
        "virgin": 4963,
        "jan": 4964,
        "don'thave": 4965,
        "skill": 4966,
        "itin": 4967,
        "comeon": 4968,
        "soft": 4969,
        "biggest": 4970,
        "ingtothe": 4971,
        "tosave": 4972,
        ".although": 4973,
        "havenever": 4974,
        "telling": 4975,
        "knock": 4976,
        "clas": 4977,
        "lord": 4978,
        "oooo": 4979,
        "message": 4980,
        "yis": 4981,
        "trip": 4982,
        "back.": 4983,
        "icon": 4984,
        "eddown": 4985,
        ",al": 4986,
        "intheoriginal": 4987,
        "cinema": 4988,
        "onescene": 4989,
        "hec": 4990,
        "nox": 4991,
        "avis": 4992,
        "meanttobe": 4993,
        "?what": 4994,
        "productionvalu": 4995,
        "howbad": 4996,
        "thecase": 4997,
        "repeated": 4998,
        "tly": 4999,
        "jew": 5000,
        "complex": 5001,
        "afanof": 5002,
        "inb": 5003,
        "exceptfor": 5004,
        "ihaveto": 5005,
        "howthe": 5006,
        "thefilmmakers": 5007,
        "anish": 5008,
        "sulting": 5009,
        "mask": 5010,
        "mol": 5011,
        "beforethe": 5012,
        "esofthe": 5013,
        "nick": 5014,
        "againstthe": 5015,
        "eris": 5016,
        "afair": 5017,
        "information": 5018,
        "epic": 5019,
        "aire": 5020,
        "faith": 5021,
        "idden": 5022,
        "gard": 5023,
        "irritating": 5024,
        "lust": 5025,
        "incident": 5026,
        "yout": 5027,
        "firstoff": 5028,
        "atively": 5029,
        "whof": 5030,
        "boat": 5031,
        "atthesam": 5032,
        "apiec": 5033,
        "scarecrow": 5034,
        "amount": 5035,
        "witt": 5036,
        "beow": 5037,
        "fromhis": 5038,
        "it!": 5039,
        "net": 5040,
        "ai": 5041,
        ",andeven": 5042,
        "pletely": 5043,
        "becoming": 5044,
        "caught": 5045,
        "party": 5046,
        "suic": 5047,
        "image": 5048,
        ")was": 5049,
        "unlessyou": 5050,
        ",ithink": 5051,
        "a)": 5052,
        "ugh": 5053,
        "normally": 5054,
        "edthem": 5055,
        "hall": 5056,
        "trying": 5057,
        "danger": 5058,
        "thefilm's": 5059,
        "older": 5060,
        "experienc": 5061,
        "movieis": 5062,
        "failure": 5063,
        "that\"": 5064,
        "produce": 5065,
        "reading": 5066,
        "inamovie": 5067,
        "ref": 5068,
        "rex": 5069,
        "buck": 5070,
        "lookedlike": 5071,
        "thatthisis": 5072,
        "vinc": 5073,
        "aise": 5074,
        "manis": 5075,
        "ati": 5076,
        "explos": 5077,
        "half-": 5078,
        "mission": 5079,
        "storyand": 5080,
        "sadly,": 5081,
        "beast": 5082,
        "cele": 5083,
        "emotional": 5084,
        "ountry": 5085,
        "sall": 5086,
        "whiles": 5087,
        "nothingmorethan": 5088,
        "progress": 5089,
        "vant": 5090,
        "notone": 5091,
        "giv": 5092,
        "ionly": 5093,
        "research": 5094,
        "eth": 5095,
        "robin": 5096,
        "alitt": 5097,
        "eso": 5098,
        "happens": 5099,
        "firstofall": 5100,
        "........": 5101,
        "successful": 5102,
        "setup": 5103,
        "youcan't": 5104,
        "twenty": 5105,
        "isaid": 5106,
        "lasher": 5107,
        "noway": 5108,
        "sycho": 5109,
        "techno": 5110,
        "whenever": 5111,
        "moreof": 5112
    },
    "merges": [
        [
            "t",
            "h"
        ],
        [
            "i",
            "n"
        ],
        [
            "th",
            "e"
        ],
        [
            "a",
            "n"
        ],
        [
            "e",
            "r"
        ],
        [
            "i",
            "s"
        ],
        [
            "r",
            "e"
        ],
        [
            "t",
            "o"
        ],
        [
            "o",
            "n"
        ],
        [
            "e",
            "n"
        ],
        [
            "a",
            "t"
        ],
        [
            "e",
            "s"
        ],
        [
            "a",
            "s"
        ],
        [
            "in",
            "g"
        ],
        [
            "o",
            "u"
        ],
        [
            "a",
            "l"
        ],
        [
            "i",
            "t"
        ],
        [
            "o",
            "r"
        ],
        [
            "an",
            "d"
        ],
        [
            "e",
            "d"
        ],
        [
            "a",
            "r"
        ],
        [
            "o",
            "f"
        ],
        [
            "l",
            "y"
        ],
        [
            "b",
            "r"
        ],
        [
            "c",
            "h"
        ],
        [
            "i",
            "l"
        ],
        [
            "o",
            "m"
        ],
        [
            "s",
            "t"
        ],
        [
            "l",
            "e"
        ],
        [
            "a",
            "c"
        ],
        [
            "<",
            "br"
        ],
        [
            "<br",
            "/"
        ],
        [
            "<br/",
            ">"
        ],
        [
            "s",
            "e"
        ],
        [
            "w",
            "h"
        ],
        [
            "m",
            "o"
        ],
        [
            "b",
            "e"
        ],
        [
            "i",
            "c"
        ],
        [
            "a",
            "d"
        ],
        [
            "th",
            "is"
        ],
        [
            "v",
            "i"
        ],
        [
            "o",
            "w"
        ],
        [
            "th",
            "at"
        ],
        [
            "o",
            "t"
        ],
        [
            "v",
            "e"
        ],
        [
            "v",
            "er"
        ],
        [
            "u",
            "t"
        ],
        [
            "l",
            "i"
        ],
        [
            "a",
            "m"
        ],
        [
            "t",
            "er"
        ],
        [
            "s",
            "h"
        ],
        [
            "f",
            "or"
        ],
        [
            "a",
            "b"
        ],
        [
            "i",
            "d"
        ],
        [
            "w",
            "as"
        ],
        [
            "i",
            "m"
        ],
        [
            "g",
            "h"
        ],
        [
            "mo",
            "vi"
        ],
        [
            "'",
            "s"
        ],
        [
            "a",
            "y"
        ],
        [
            "en",
            "t"
        ],
        [
            "i",
            "on"
        ],
        [
            "e",
            "l"
        ],
        [
            "<br/>",
            "<br/>"
        ],
        [
            "u",
            "n"
        ],
        [
            "i",
            "th"
        ],
        [
            "a",
            "p"
        ],
        [
            "o",
            "o"
        ],
        [
            "l",
            "d"
        ],
        [
            "k",
            "e"
        ],
        [
            "a",
            "re"
        ],
        [
            "e",
            "c"
        ],
        [
            "f",
            "il"
        ],
        [
            "y",
            "ou"
        ],
        [
            "fil",
            "m"
        ],
        [
            ".",
            "<br/><br/>"
        ],
        [
            "movi",
            "e"
        ],
        [
            "e",
            "t"
        ],
        [
            "a",
            "g"
        ],
        [
            "w",
            "ith"
        ],
        [
            "r",
            "i"
        ],
        [
            "b",
            "ut"
        ],
        [
            "i",
            "r"
        ],
        [
            "e",
            "m"
        ],
        [
            "r",
            "o"
        ],
        [
            "al",
            "l"
        ],
        [
            "s",
            "u"
        ],
        [
            ".",
            "the"
        ],
        [
            "on",
            "e"
        ],
        [
            "'",
            "t"
        ],
        [
            "s",
            "to"
        ],
        [
            "i",
            "f"
        ],
        [
            "p",
            "l"
        ],
        [
            "al",
            "ly"
        ],
        [
            "the",
            "r"
        ],
        [
            "s",
            "c"
        ],
        [
            "ou",
            "ld"
        ],
        [
            "ou",
            "t"
        ],
        [
            "s",
            "o"
        ],
        [
            ".",
            "."
        ],
        [
            "h",
            "a"
        ],
        [
            "p",
            "o"
        ],
        [
            "u",
            "l"
        ],
        [
            "om",
            "e"
        ],
        [
            "of",
            "the"
        ],
        [
            "n",
            "ot"
        ],
        [
            "ac",
            "t"
        ],
        [
            "n",
            "o"
        ],
        [
            "c",
            "e"
        ],
        [
            "er",
            "e"
        ],
        [
            "u",
            "r"
        ],
        [
            "es",
            "t"
        ],
        [
            "u",
            "st"
        ],
        [
            "th",
            "ing"
        ],
        [
            "e",
            "ver"
        ],
        [
            ",",
            "and"
        ],
        [
            "il",
            "l"
        ],
        [
            "m",
            "a"
        ],
        [
            "r",
            "y"
        ],
        [
            "u",
            "s"
        ],
        [
            "e",
            "x"
        ],
        [
            "h",
            "e"
        ],
        [
            "in",
            "the"
        ],
        [
            "to",
            "f"
        ],
        [
            "en",
            "d"
        ],
        [
            "an",
            "y"
        ],
        [
            "f",
            "r"
        ],
        [
            "d",
            "e"
        ],
        [
            "es",
            "s"
        ],
        [
            "gh",
            "t"
        ],
        [
            "c",
            "om"
        ],
        [
            ",",
            "the"
        ],
        [
            "o",
            "p"
        ],
        [
            "v",
            "en"
        ],
        [
            "o",
            "l"
        ],
        [
            "i",
            "re"
        ],
        [
            "b",
            "y"
        ],
        [
            "a",
            "u"
        ],
        [
            "w",
            "or"
        ],
        [
            "h",
            "is"
        ],
        [
            "an",
            "t"
        ],
        [
            "a",
            "in"
        ],
        [
            "e",
            "w"
        ],
        [
            "oo",
            "d"
        ],
        [
            "a",
            "f"
        ],
        [
            "as",
            "t"
        ],
        [
            "i",
            "g"
        ],
        [
            "p",
            "e"
        ],
        [
            "j",
            "ust"
        ],
        [
            "li",
            "ke"
        ],
        [
            "c",
            "on"
        ],
        [
            "u",
            "p"
        ],
        [
            "d",
            "o"
        ],
        [
            "the",
            "y"
        ],
        [
            "s",
            "ome"
        ],
        [
            ",",
            "but"
        ],
        [
            "to",
            "r"
        ],
        [
            "h",
            "er"
        ],
        [
            "the",
            "re"
        ],
        [
            "is",
            "t"
        ],
        [
            "a",
            "w"
        ],
        [
            "n",
            "'t"
        ],
        [
            "ha",
            "ve"
        ],
        [
            "ou",
            "n"
        ],
        [
            "wh",
            "o"
        ],
        [
            "fr",
            "om"
        ],
        [
            "er",
            "s"
        ],
        [
            "ou",
            "s"
        ],
        [
            "ac",
            "k"
        ],
        [
            "ar",
            "t"
        ],
        [
            "q",
            "u"
        ],
        [
            "g",
            "et"
        ],
        [
            "g",
            "o"
        ],
        [
            "el",
            "l"
        ],
        [
            "p",
            "re"
        ],
        [
            "in",
            "d"
        ],
        [
            "ch",
            "ar"
        ],
        [
            "p",
            "ro"
        ],
        [
            "at",
            "ch"
        ],
        [
            "l",
            "o"
        ],
        [
            "wh",
            "at"
        ],
        [
            "ou",
            "gh"
        ],
        [
            "m",
            "e"
        ],
        [
            "s",
            "p"
        ],
        [
            "k",
            "ing"
        ],
        [
            "m",
            "an"
        ],
        [
            "ab",
            "out"
        ],
        [
            "it",
            "'s"
        ],
        [
            "t",
            "r"
        ],
        [
            "b",
            "o"
        ],
        [
            "this",
            "movie"
        ],
        [
            "at",
            "ion"
        ],
        [
            "t",
            "im"
        ],
        [
            "ar",
            "d"
        ],
        [
            "s",
            "."
        ],
        [
            "at",
            "e"
        ],
        [
            "m",
            "y"
        ],
        [
            "ed",
            "to"
        ],
        [
            "ec",
            "t"
        ],
        [
            "o",
            "ther"
        ],
        [
            "p",
            "er"
        ],
        [
            "ac",
            "ter"
        ],
        [
            "char",
            "acter"
        ],
        [
            "w",
            "atch"
        ],
        [
            "the",
            "m"
        ],
        [
            "w",
            "ould"
        ],
        [
            "i",
            "ch"
        ],
        [
            "w",
            "e"
        ],
        [
            "v",
            "es"
        ],
        [
            "s",
            ","
        ],
        [
            "u",
            "m"
        ],
        [
            "n",
            "e"
        ],
        [
            "i",
            "ve"
        ],
        [
            "in",
            "t"
        ],
        [
            "n",
            "ow"
        ],
        [
            "b",
            "ad"
        ],
        [
            "p",
            "t"
        ],
        [
            "s",
            "s"
        ],
        [
            "wh",
            "en"
        ],
        [
            "e",
            "ven"
        ],
        [
            "b",
            "l"
        ],
        [
            "a",
            "k"
        ],
        [
            "mo",
            "re"
        ],
        [
            "oo",
            "k"
        ],
        [
            "d",
            "er"
        ],
        [
            "on",
            "g"
        ],
        [
            "b",
            "le"
        ],
        [
            "it",
            "y"
        ],
        [
            "oun",
            "d"
        ],
        [
            "h",
            "ow"
        ],
        [
            "h",
            "as"
        ],
        [
            "w",
            "ay"
        ],
        [
            "u",
            "re"
        ],
        [
            "ver",
            "y"
        ],
        [
            "be",
            "c"
        ],
        [
            "g",
            "r"
        ],
        [
            "o",
            "re"
        ],
        [
            "ab",
            "le"
        ],
        [
            "t",
            "e"
        ],
        [
            "g",
            "e"
        ],
        [
            "u",
            "c"
        ],
        [
            "j",
            "o"
        ],
        [
            "d",
            "i"
        ],
        [
            "th",
            "a"
        ],
        [
            "i",
            "'"
        ],
        [
            "wh",
            "ich"
        ],
        [
            "g",
            "u"
        ],
        [
            "f",
            "e"
        ],
        [
            "is",
            "h"
        ],
        [
            "th",
            "an"
        ],
        [
            "i",
            "ght"
        ],
        [
            "ou",
            "r"
        ],
        [
            "to",
            "n"
        ],
        [
            "it",
            "t"
        ],
        [
            "s",
            "of"
        ],
        [
            "u",
            "ch"
        ],
        [
            "se",
            "e"
        ],
        [
            "to",
            "the"
        ],
        [
            "o",
            "ver"
        ],
        [
            "p",
            "le"
        ],
        [
            "on",
            "ly"
        ],
        [
            "g",
            "ood"
        ],
        [
            "e",
            "p"
        ],
        [
            "f",
            "ul"
        ],
        [
            "on",
            "'t"
        ],
        [
            "se",
            "l"
        ],
        [
            "be",
            "t"
        ],
        [
            "this",
            "film"
        ],
        [
            "..",
            "."
        ],
        [
            "ic",
            "k"
        ],
        [
            "ow",
            "n"
        ],
        [
            "e",
            "."
        ],
        [
            "c",
            "an"
        ],
        [
            "s",
            "and"
        ],
        [
            "h",
            "ad"
        ],
        [
            "u",
            "d"
        ],
        [
            "au",
            "se"
        ],
        [
            "m",
            "ent"
        ],
        [
            "of",
            "f"
        ],
        [
            "the",
            "n"
        ],
        [
            "i",
            "es"
        ],
        [
            "be",
            "en"
        ],
        [
            "the",
            "f"
        ],
        [
            "sh",
            "ow"
        ],
        [
            "w",
            "r"
        ],
        [
            "e",
            "ar"
        ],
        [
            "sc",
            "en"
        ],
        [
            "e",
            "f"
        ],
        [
            "ire",
            "c"
        ],
        [
            "it",
            "was"
        ],
        [
            "c",
            "r"
        ],
        [
            "in",
            "k"
        ],
        [
            "sto",
            "ry"
        ],
        [
            "movi",
            "es"
        ],
        [
            "p",
            "r"
        ],
        [
            "th",
            "r"
        ],
        [
            "ad",
            "e"
        ],
        [
            "bec",
            "ause"
        ],
        [
            "ing",
            "to"
        ],
        [
            "a",
            "h"
        ],
        [
            "re",
            "ally"
        ],
        [
            "am",
            "e"
        ],
        [
            "re",
            "at"
        ],
        [
            "s",
            "in"
        ],
        [
            "ap",
            "p"
        ],
        [
            "mo",
            "st"
        ],
        [
            "i",
            "al"
        ],
        [
            "c",
            "l"
        ],
        [
            "ma",
            "ke"
        ],
        [
            "t",
            "ion"
        ],
        [
            "t",
            "y"
        ],
        [
            "this",
            "is"
        ],
        [
            "s",
            "om"
        ],
        [
            "the",
            "s"
        ],
        [
            "k",
            "now"
        ],
        [
            "op",
            "le"
        ],
        [
            "in",
            "e"
        ],
        [
            "pl",
            "ay"
        ],
        [
            "en",
            "ce"
        ],
        [
            "a",
            "v"
        ],
        [
            "b",
            "er"
        ],
        [
            "pe",
            "ople"
        ],
        [
            "a",
            "ch"
        ],
        [
            "as",
            "s"
        ],
        [
            "sh",
            "e"
        ],
        [
            "do",
            "es"
        ],
        [
            "d",
            "is"
        ],
        [
            "ever",
            "y"
        ],
        [
            "it",
            "is"
        ],
        [
            "it",
            "s"
        ],
        [
            "ing",
            "the"
        ],
        [
            "d",
            "irec"
        ],
        [
            "af",
            "ter"
        ],
        [
            "un",
            "n"
        ],
        [
            "id",
            "e"
        ],
        [
            "d",
            "id"
        ],
        [
            "w",
            "ell"
        ],
        [
            "in",
            "ter"
        ],
        [
            "t",
            "w"
        ],
        [
            "it",
            "e"
        ],
        [
            "the",
            "c"
        ],
        [
            "w",
            "ere"
        ],
        [
            "act",
            "ing"
        ],
        [
            "h",
            "im"
        ],
        [
            "sel",
            "f"
        ],
        [
            "in",
            "al"
        ],
        [
            "if",
            "you"
        ],
        [
            "ed",
            "by"
        ],
        [
            "pl",
            "ot"
        ],
        [
            "l",
            "ook"
        ],
        [
            "to",
            "be"
        ],
        [
            "ag",
            "e"
        ],
        [
            "l",
            "ow"
        ],
        [
            "se",
            "em"
        ],
        [
            "k",
            "es"
        ],
        [
            "an",
            "g"
        ],
        [
            "ir",
            "st"
        ],
        [
            "tim",
            "e"
        ],
        [
            "as",
            "h"
        ],
        [
            "po",
            "int"
        ],
        [
            "t",
            "ing"
        ],
        [
            "ac",
            "tor"
        ],
        [
            "a",
            "th"
        ],
        [
            "and",
            "the"
        ],
        [
            "c",
            "ould"
        ],
        [
            "w",
            "ill"
        ],
        [
            "wh",
            "ere"
        ],
        [
            "m",
            "in"
        ],
        [
            "you",
            "r"
        ],
        [
            "s",
            "ay"
        ],
        [
            "k",
            "ill"
        ],
        [
            "ic",
            "e"
        ],
        [
            "wh",
            "y"
        ],
        [
            "f",
            "ore"
        ],
        [
            "o",
            "ld"
        ],
        [
            "ic",
            "al"
        ],
        [
            "l",
            "ess"
        ],
        [
            "ic",
            "an"
        ],
        [
            "ar",
            "y"
        ],
        [
            "d",
            "r"
        ],
        [
            "a",
            "ke"
        ],
        [
            "the",
            "ir"
        ],
        [
            "b",
            "ack"
        ],
        [
            "the",
            "film"
        ],
        [
            "m",
            "uch"
        ],
        [
            ".",
            "i"
        ],
        [
            "e",
            "v"
        ],
        [
            "bet",
            "ter"
        ],
        [
            "l",
            "es"
        ],
        [
            "i",
            "ous"
        ],
        [
            "c",
            "k"
        ],
        [
            "at",
            "t"
        ],
        [
            "c",
            "re"
        ],
        [
            "s",
            "on"
        ],
        [
            "d",
            "es"
        ],
        [
            "in",
            "to"
        ],
        [
            "b",
            "u"
        ],
        [
            "a",
            "ve"
        ],
        [
            "p",
            "or"
        ],
        [
            "w",
            "ant"
        ],
        [
            "re",
            "n"
        ],
        [
            "at",
            "ed"
        ],
        [
            "vi",
            "ew"
        ],
        [
            "st",
            "r"
        ],
        [
            "s",
            "are"
        ],
        [
            "s",
            "er"
        ],
        [
            "i",
            "gh"
        ],
        [
            "ur",
            "n"
        ],
        [
            "m",
            "ade"
        ],
        [
            "wor",
            "k"
        ],
        [
            "v",
            "ing"
        ],
        [
            "!",
            "!"
        ],
        [
            "f",
            "l"
        ],
        [
            "al",
            "o"
        ],
        [
            "th",
            "ough"
        ],
        [
            "thr",
            "ough"
        ],
        [
            "the",
            "b"
        ],
        [
            "h",
            "or"
        ],
        [
            "p",
            "art"
        ],
        [
            "be",
            "ing"
        ],
        [
            "u",
            "ally"
        ],
        [
            "to",
            "o"
        ],
        [
            "i",
            "p"
        ],
        [
            "au",
            "gh"
        ],
        [
            "ac",
            "e"
        ],
        [
            "the",
            "movie"
        ],
        [
            "f",
            "a"
        ],
        [
            "d",
            "on't"
        ],
        [
            "i",
            "an"
        ],
        [
            "i",
            "z"
        ],
        [
            "-",
            "-"
        ],
        [
            "t",
            "ain"
        ],
        [
            "su",
            "p"
        ],
        [
            "t",
            "al"
        ],
        [
            "g",
            "i"
        ],
        [
            "v",
            "ed"
        ],
        [
            "d",
            "y"
        ],
        [
            "al",
            "so"
        ],
        [
            "p",
            "h"
        ],
        [
            "at",
            "er"
        ],
        [
            "en",
            "s"
        ],
        [
            "sto",
            "f"
        ],
        [
            "on",
            "the"
        ],
        [
            "d",
            "uc"
        ],
        [
            ".the",
            "re"
        ],
        [
            "f",
            "ect"
        ],
        [
            "am",
            "er"
        ],
        [
            "wh",
            "il"
        ],
        [
            "m",
            "is"
        ],
        [
            "unn",
            "y"
        ],
        [
            "as",
            "on"
        ],
        [
            "c",
            "o"
        ],
        [
            "an",
            "ce"
        ],
        [
            "re",
            "al"
        ],
        [
            "for",
            "the"
        ],
        [
            "t",
            "ed"
        ],
        [
            "po",
            "s"
        ],
        [
            "it",
            "."
        ],
        [
            "h",
            "ere"
        ],
        [
            "ir",
            "l"
        ],
        [
            "es",
            "to"
        ],
        [
            "w",
            "er"
        ],
        [
            "l",
            "l"
        ],
        [
            "ou",
            "ght"
        ],
        [
            "no",
            "thing"
        ],
        [
            "at",
            "the"
        ],
        [
            "inter",
            "est"
        ],
        [
            "es",
            ","
        ],
        [
            "m",
            "ay"
        ],
        [
            "with",
            "the"
        ],
        [
            "ing",
            "."
        ],
        [
            "i",
            "was"
        ],
        [
            "itt",
            "le"
        ],
        [
            "r",
            "or"
        ],
        [
            "y",
            "ear"
        ],
        [
            "i'",
            "m"
        ],
        [
            "some",
            "thing"
        ],
        [
            "as",
            "e"
        ],
        [
            "or",
            "ig"
        ],
        [
            "be",
            "li"
        ],
        [
            "un",
            "der"
        ],
        [
            "re",
            "d"
        ],
        [
            "f",
            "er"
        ],
        [
            "o",
            "b"
        ],
        [
            "st",
            "e"
        ],
        [
            "th",
            "ink"
        ],
        [
            "ag",
            "ain"
        ],
        [
            "ab",
            "ly"
        ],
        [
            "1",
            "0"
        ],
        [
            "ing",
            ","
        ],
        [
            "a",
            "z"
        ],
        [
            "ou",
            "tof"
        ],
        [
            "in",
            "c"
        ],
        [
            "ar",
            "k"
        ],
        [
            "ri",
            "pt"
        ],
        [
            "f",
            "unny"
        ],
        [
            "sh",
            "ould"
        ],
        [
            "re",
            "ad"
        ],
        [
            "y",
            ","
        ],
        [
            "th",
            "o"
        ],
        [
            "an",
            "c"
        ],
        [
            "i",
            "ly"
        ],
        [
            "act",
            "ually"
        ],
        [
            "one",
            "ofthe"
        ],
        [
            "1",
            "9"
        ],
        [
            "ve",
            "l"
        ],
        [
            ".",
            "but"
        ],
        [
            "direc",
            "tor"
        ],
        [
            "orig",
            "inal"
        ],
        [
            "ri",
            "end"
        ],
        [
            "en",
            "se"
        ],
        [
            ".<br/><br/>",
            "the"
        ],
        [
            "le",
            "t"
        ],
        [
            "ic",
            "t"
        ],
        [
            "g",
            "irl"
        ],
        [
            "gu",
            "y"
        ],
        [
            "n",
            "ever"
        ],
        [
            "d",
            "ay"
        ],
        [
            "d",
            "own"
        ],
        [
            "min",
            "ut"
        ],
        [
            "g",
            "en"
        ],
        [
            "is",
            "e"
        ],
        [
            "sc",
            "re"
        ],
        [
            "se",
            "x"
        ],
        [
            "il",
            "d"
        ],
        [
            "su",
            "ch"
        ],
        [
            "i",
            "e"
        ],
        [
            "for",
            "t"
        ],
        [
            "c",
            "ar"
        ],
        [
            "pre",
            "t"
        ],
        [
            "s",
            "that"
        ],
        [
            "an",
            "other"
        ],
        [
            "li",
            "fe"
        ],
        [
            "p",
            "ect"
        ],
        [
            ")",
            "."
        ],
        [
            "a",
            "to"
        ],
        [
            "be",
            "fore"
        ],
        [
            "u",
            "e"
        ],
        [
            "f",
            "in"
        ],
        [
            "st",
            "ar"
        ],
        [
            "en",
            "c"
        ],
        [
            "pro",
            "duc"
        ],
        [
            "g",
            "ot"
        ],
        [
            "f",
            "irst"
        ],
        [
            "ri",
            "ble"
        ],
        [
            "*",
            "*"
        ],
        [
            "ed",
            "."
        ],
        [
            "b",
            "or"
        ],
        [
            "su",
            "r"
        ],
        [
            "an",
            "s"
        ],
        [
            "at",
            "ing"
        ],
        [
            "se",
            "t"
        ],
        [
            "es",
            "."
        ],
        [
            "st",
            "and"
        ],
        [
            "t",
            "ry"
        ],
        [
            "g",
            "reat"
        ],
        [
            "'",
            "re"
        ],
        [
            "for",
            "m"
        ],
        [
            "watch",
            "ing"
        ],
        [
            "sc",
            "ript"
        ],
        [
            "ex",
            "t"
        ],
        [
            "wor",
            "st"
        ],
        [
            "tha",
            "ve"
        ],
        [
            "f",
            "riend"
        ],
        [
            "o",
            "c"
        ],
        [
            "s",
            "or"
        ],
        [
            "ic",
            "ul"
        ],
        [
            "wr",
            "it"
        ],
        [
            "g",
            "l"
        ],
        [
            "ed",
            ","
        ],
        [
            "es",
            "c"
        ],
        [
            "to",
            "p"
        ],
        [
            "from",
            "the"
        ],
        [
            "ap",
            "pe"
        ],
        [
            "ma",
            "kes"
        ],
        [
            "in",
            "s"
        ],
        [
            "a",
            "id"
        ],
        [
            "act",
            "ion"
        ],
        [
            "p",
            "ar"
        ],
        [
            "o",
            "d"
        ],
        [
            "ly",
            ","
        ],
        [
            "com",
            "m"
        ],
        [
            "s",
            "the"
        ],
        [
            "have",
            "been"
        ],
        [
            "ing",
            "and"
        ],
        [
            "w",
            "ar"
        ],
        [
            "st",
            "ill"
        ],
        [
            "m",
            "any"
        ],
        [
            "oo",
            "l"
        ],
        [
            "scen",
            "es"
        ],
        [
            ".",
            "it"
        ],
        [
            "im",
            "e"
        ],
        [
            "fe",
            "el"
        ],
        [
            "w",
            "om"
        ],
        [
            "scen",
            "e"
        ],
        [
            "ri",
            "ght"
        ],
        [
            "that",
            "'s"
        ],
        [
            "am",
            "p"
        ],
        [
            "an",
            "n"
        ],
        [
            "ag",
            "ood"
        ],
        [
            "k",
            "id"
        ],
        [
            "any",
            "thing"
        ],
        [
            "b",
            "as"
        ],
        [
            "the",
            "l"
        ],
        [
            "ch",
            "e"
        ],
        [
            "u",
            "g"
        ],
        [
            "s",
            "y"
        ],
        [
            "s",
            "l"
        ],
        [
            "r",
            "a"
        ],
        [
            "se",
            "en"
        ],
        [
            "in",
            "v"
        ],
        [
            "con",
            "t"
        ],
        [
            "on",
            "d"
        ],
        [
            "e",
            "en"
        ],
        [
            "u",
            "al"
        ],
        [
            "tho",
            "se"
        ],
        [
            "ic",
            "ally"
        ],
        [
            "le",
            "ast"
        ],
        [
            "k",
            "ind"
        ],
        [
            "n",
            "ew"
        ],
        [
            "b",
            "es"
        ],
        [
            "en",
            "ough"
        ],
        [
            "ers",
            "on"
        ],
        [
            "how",
            "ever"
        ],
        [
            "ver",
            "s"
        ],
        [
            "ar",
            "ound"
        ],
        [
            "all",
            "the"
        ],
        [
            "im",
            "p"
        ],
        [
            "tw",
            "o"
        ],
        [
            "w",
            "ood"
        ],
        [
            "po",
            "or"
        ],
        [
            "m",
            "us"
        ],
        [
            "t",
            "urn"
        ],
        [
            "ed",
            "in"
        ],
        [
            ",",
            "\""
        ],
        [
            "does",
            "n't"
        ],
        [
            "u",
            "b"
        ],
        [
            ".",
            "and"
        ],
        [
            "aw",
            "ay"
        ],
        [
            "d",
            "ec"
        ],
        [
            "whil",
            "e"
        ],
        [
            "to",
            "see"
        ],
        [
            "m",
            "ar"
        ],
        [
            "pret",
            "ty"
        ],
        [
            "a",
            "movie"
        ],
        [
            "ce",
            "pt"
        ],
        [
            "app",
            "en"
        ],
        [
            "ef",
            "fect"
        ],
        [
            "om",
            "b"
        ],
        [
            "st",
            "er"
        ],
        [
            "character",
            "s"
        ],
        [
            "a",
            "il"
        ],
        [
            "y",
            "."
        ],
        [
            "ed",
            "it"
        ],
        [
            "ple",
            "te"
        ],
        [
            "of",
            "c"
        ],
        [
            "st",
            "art"
        ],
        [
            "he",
            "ad"
        ],
        [
            "up",
            "id"
        ],
        [
            "p",
            "ut"
        ],
        [
            "so",
            "l"
        ],
        [
            "ed",
            "and"
        ],
        [
            "vi",
            "ous"
        ],
        [
            "as",
            "the"
        ],
        [
            "al",
            "f"
        ],
        [
            "ma",
            "king"
        ],
        [
            "g",
            "ive"
        ],
        [
            ")",
            ","
        ],
        [
            "ak",
            "es"
        ],
        [
            "that",
            "the"
        ],
        [
            "is",
            "the"
        ],
        [
            "le",
            "ar"
        ],
        [
            "il",
            "li"
        ],
        [
            "lo",
            "ve"
        ],
        [
            "0",
            "0"
        ],
        [
            "d",
            "on"
        ],
        [
            "ac",
            "c"
        ],
        [
            "ex",
            "pl"
        ],
        [
            "s",
            "like"
        ],
        [
            "l",
            "in"
        ],
        [
            "u",
            "se"
        ],
        [
            "l",
            "augh"
        ],
        [
            "i",
            "ble"
        ],
        [
            "f",
            "f"
        ],
        [
            ".",
            "\""
        ],
        [
            "ex",
            "pect"
        ],
        [
            "minut",
            "es"
        ],
        [
            "c",
            "are"
        ],
        [
            "m",
            "em"
        ],
        [
            "c",
            "ast"
        ],
        [
            "this",
            "one"
        ],
        [
            "jo",
            "y"
        ],
        [
            ",",
            "it"
        ],
        [
            "em",
            "pt"
        ],
        [
            "ap",
            "h"
        ],
        [
            "com",
            "ed"
        ],
        [
            "ig",
            "n"
        ],
        [
            "re",
            "e"
        ],
        [
            "i",
            "ther"
        ],
        [
            "o",
            "ot"
        ],
        [
            "af",
            "ew"
        ],
        [
            "li",
            "ght"
        ],
        [
            ".",
            "it's"
        ],
        [
            "su",
            "re"
        ],
        [
            "id",
            "on't"
        ],
        [
            "are",
            "n"
        ],
        [
            "ad",
            "d"
        ],
        [
            "ed",
            "o"
        ],
        [
            "y",
            "and"
        ],
        [
            "wor",
            "ld"
        ],
        [
            "v",
            "is"
        ],
        [
            "aw",
            "ful"
        ],
        [
            "s",
            "it"
        ],
        [
            "ed",
            "on"
        ],
        [
            "scre",
            "en"
        ],
        [
            "in",
            "n"
        ],
        [
            "b",
            "ar"
        ],
        [
            ".the",
            "y"
        ],
        [
            ",",
            "as"
        ],
        [
            "f",
            "am"
        ],
        [
            "s",
            "m"
        ],
        [
            "le",
            "ad"
        ],
        [
            "po",
            "ss"
        ],
        [
            "s",
            "id"
        ],
        [
            "ste",
            "ad"
        ],
        [
            "m",
            "ind"
        ],
        [
            ",",
            "which"
        ],
        [
            "ma",
            "in"
        ],
        [
            "g",
            "er"
        ],
        [
            "en",
            "ter"
        ],
        [
            "e",
            "ve"
        ],
        [
            "es",
            "p"
        ],
        [
            "for",
            "man"
        ],
        [
            "b",
            "est"
        ],
        [
            "au",
            "di"
        ],
        [
            ",the",
            "re"
        ],
        [
            "b",
            "ud"
        ],
        [
            "h",
            "and"
        ],
        [
            "h",
            "el"
        ],
        [
            "bo",
            "dy"
        ],
        [
            "to",
            "ry"
        ],
        [
            "there",
            "is"
        ],
        [
            ",",
            "i"
        ],
        [
            "ou",
            "se"
        ],
        [
            "l",
            "ed"
        ],
        [
            "that",
            "is"
        ],
        [
            "w",
            "ard"
        ],
        [
            "su",
            "b"
        ],
        [
            "ut",
            "e"
        ],
        [
            "at",
            "least"
        ],
        [
            "who",
            "le"
        ],
        [
            "c",
            "ome"
        ],
        [
            "uc",
            "k"
        ],
        [
            "l",
            "oo"
        ],
        [
            "t",
            "ri"
        ],
        [
            "al",
            "most"
        ],
        [
            "ate",
            "ly"
        ],
        [
            "thismovie",
            "is"
        ],
        [
            "s",
            "ch"
        ],
        [
            "p",
            "i"
        ],
        [
            "st",
            "upid"
        ],
        [
            "at",
            "all"
        ],
        [
            "com",
            "p"
        ],
        [
            "be",
            "g"
        ],
        [
            "pre",
            "ss"
        ],
        [
            "re",
            "ss"
        ],
        [
            "m",
            "ad"
        ],
        [
            "per",
            "forman"
        ],
        [
            "ith",
            "ink"
        ],
        [
            "f",
            "ar"
        ],
        [
            "com",
            "es"
        ],
        [
            "pro",
            "b"
        ],
        [
            "l",
            "ong"
        ],
        [
            "hor",
            "ror"
        ],
        [
            "h",
            "ard"
        ],
        [
            "wor",
            "th"
        ],
        [
            "a",
            "ir"
        ],
        [
            "t",
            "en"
        ],
        [
            "c",
            "er"
        ],
        [
            "this",
            "was"
        ],
        [
            "one",
            "y"
        ],
        [
            "in",
            "em"
        ],
        [
            "h",
            "op"
        ],
        [
            "o",
            "k"
        ],
        [
            "in",
            "stead"
        ],
        [
            "s",
            "\""
        ],
        [
            "di",
            "alo"
        ],
        [
            "on",
            "der"
        ],
        [
            "with",
            "out"
        ],
        [
            "sup",
            "pos"
        ],
        [
            "en",
            "joy"
        ],
        [
            "may",
            "be"
        ],
        [
            ",the",
            "y"
        ],
        [
            "i",
            "ally"
        ],
        [
            "film",
            "s"
        ],
        [
            "t",
            "ake"
        ],
        [
            "l",
            "ittle"
        ],
        [
            "v",
            "al"
        ],
        [
            "f",
            "ind"
        ],
        [
            "c",
            "all"
        ],
        [
            "did",
            "n't"
        ],
        [
            "wh",
            "ow"
        ],
        [
            "prob",
            "ably"
        ],
        [
            "ap",
            "point"
        ],
        [
            ",",
            "you"
        ],
        [
            "h",
            "igh"
        ],
        [
            "i",
            "b"
        ],
        [
            "appe",
            "ar"
        ],
        [
            "es",
            "e"
        ],
        [
            "the",
            "t"
        ],
        [
            "b",
            "ig"
        ],
        [
            "at",
            "ure"
        ],
        [
            "ul",
            "t"
        ],
        [
            "l",
            "and"
        ],
        [
            "in",
            "this"
        ],
        [
            "r",
            "u"
        ],
        [
            "m",
            "en"
        ],
        [
            "n",
            "ess"
        ],
        [
            "ch",
            "r"
        ],
        [
            "m",
            "on"
        ],
        [
            "h",
            "our"
        ],
        [
            "an",
            "k"
        ],
        [
            "an",
            "e"
        ],
        [
            "o",
            "g"
        ],
        [
            "w",
            "al"
        ],
        [
            "an",
            "im"
        ],
        [
            "bet",
            "we"
        ],
        [
            "pro",
            "ble"
        ],
        [
            "l",
            "ine"
        ],
        [
            "sh",
            "ot"
        ],
        [
            "re",
            "ason"
        ],
        [
            "bo",
            "y"
        ],
        [
            "con",
            "d"
        ],
        [
            "sp",
            "ec"
        ],
        [
            "s",
            ".<br/><br/>"
        ],
        [
            "po",
            "l"
        ],
        [
            "s",
            "ing"
        ],
        [
            "s",
            "ent"
        ],
        [
            "om",
            "ent"
        ],
        [
            "a",
            "film"
        ],
        [
            "or",
            "t"
        ],
        [
            "ex",
            "c"
        ],
        [
            "e",
            "of"
        ],
        [
            ",",
            "is"
        ],
        [
            "es",
            "h"
        ],
        [
            "to",
            "watch"
        ],
        [
            "is",
            "m"
        ],
        [
            "ed",
            "the"
        ],
        [
            "fort",
            "un"
        ],
        [
            "se",
            "qu"
        ],
        [
            "you",
            "n"
        ],
        [
            "..",
            ".."
        ],
        [
            "gr",
            "aph"
        ],
        [
            "vi",
            "de"
        ],
        [
            "com",
            "plete"
        ],
        [
            "interest",
            "ing"
        ],
        [
            "un",
            "t"
        ],
        [
            "o",
            "s"
        ],
        [
            "end",
            "ing"
        ],
        [
            "if",
            "fer"
        ],
        [
            "p",
            "erson"
        ],
        [
            "ves",
            "een"
        ],
        [
            "es",
            "and"
        ],
        [
            "aren",
            "t"
        ],
        [
            "ent",
            "ion"
        ],
        [
            "el",
            "se"
        ],
        [
            "n",
            "'"
        ],
        [
            "o",
            "h"
        ],
        [
            "our",
            "se"
        ],
        [
            "re",
            "t"
        ],
        [
            "li",
            "k"
        ],
        [
            "c",
            "i"
        ],
        [
            "er",
            ","
        ],
        [
            "h",
            "ol"
        ],
        [
            "le",
            "f"
        ],
        [
            "att",
            "empt"
        ],
        [
            "c",
            "or"
        ],
        [
            "thef",
            "irst"
        ],
        [
            "betwe",
            "en"
        ],
        [
            "kind",
            "of"
        ],
        [
            "i",
            "have"
        ],
        [
            "s",
            "("
        ],
        [
            "any",
            "one"
        ],
        [
            "id",
            "id"
        ],
        [
            "he",
            "'s"
        ],
        [
            ")",
            "and"
        ],
        [
            "beli",
            "eve"
        ],
        [
            "imp",
            "ly"
        ],
        [
            "as",
            "k"
        ],
        [
            "was",
            "te"
        ],
        [
            "at",
            "ter"
        ],
        [
            "loo",
            "king"
        ],
        [
            "a",
            "king"
        ],
        [
            "ac",
            "om"
        ],
        [
            "l",
            "ack"
        ],
        [
            "per",
            "i"
        ],
        [
            "ic",
            "ould"
        ],
        [
            "ch",
            "ild"
        ],
        [
            "por",
            "t"
        ],
        [
            "al",
            "ong"
        ],
        [
            "m",
            "or"
        ],
        [
            ",",
            "or"
        ],
        [
            "c",
            "ol"
        ],
        [
            "ed",
            "i"
        ],
        [
            "if",
            "e"
        ],
        [
            "j",
            "ect"
        ],
        [
            "he",
            "is"
        ],
        [
            "f",
            "act"
        ],
        [
            "it",
            "ion"
        ],
        [
            "amer",
            "ican"
        ],
        [
            "wor",
            "se"
        ],
        [
            "bud",
            "get"
        ],
        [
            "ke",
            "ep"
        ],
        [
            "pr",
            "is"
        ],
        [
            "ul",
            "l"
        ],
        [
            ",",
            "it's"
        ],
        [
            "go",
            "ing"
        ],
        [
            "ma",
            "k"
        ],
        [
            "s",
            "ofthe"
        ],
        [
            "h",
            "u"
        ],
        [
            "to",
            "make"
        ],
        [
            "vers",
            "ion"
        ],
        [
            "mo",
            "stof"
        ],
        [
            "jo",
            "h"
        ],
        [
            "b",
            "re"
        ],
        [
            "fa",
            "il"
        ],
        [
            ",and",
            "the"
        ],
        [
            "r",
            "id"
        ],
        [
            "l",
            "er"
        ],
        [
            "a",
            "very"
        ],
        [
            "ide",
            "a"
        ],
        [
            "is",
            "s"
        ],
        [
            "on",
            "s"
        ],
        [
            "some",
            "one"
        ],
        [
            "se",
            "cond"
        ],
        [
            "m",
            "er"
        ],
        [
            "bl",
            "ack"
        ],
        [
            "there",
            "are"
        ],
        [
            "would",
            "be"
        ],
        [
            "at",
            "ive"
        ],
        [
            "by",
            "the"
        ],
        [
            "wor",
            "d"
        ],
        [
            "pi",
            "ec"
        ],
        [
            "um",
            "b"
        ],
        [
            "it",
            "ch"
        ],
        [
            "go",
            "ingto"
        ],
        [
            "ha",
            "ven"
        ],
        [
            "al",
            "ity"
        ],
        [
            "su",
            "l"
        ],
        [
            "z",
            "omb"
        ],
        [
            "is",
            "n't"
        ],
        [
            "a",
            "ut"
        ],
        [
            "d",
            "en"
        ],
        [
            "n",
            "er"
        ],
        [
            "get",
            "s"
        ],
        [
            "f",
            "un"
        ],
        [
            "c",
            "ent"
        ],
        [
            "y",
            "ing"
        ],
        [
            "alo",
            "tof"
        ],
        [
            "every",
            "thing"
        ],
        [
            "joh",
            "n"
        ],
        [
            "ar",
            "ly"
        ],
        [
            "f",
            "ol"
        ],
        [
            "n",
            "ight"
        ],
        [
            "ne",
            "ed"
        ],
        [
            "f",
            "all"
        ],
        [
            "to",
            "t"
        ],
        [
            "is",
            "o"
        ],
        [
            "bl",
            "ood"
        ],
        [
            "mus",
            "ic"
        ],
        [
            "im",
            "ag"
        ],
        [
            "are",
            "d"
        ],
        [
            "a",
            "\""
        ],
        [
            ",",
            "in"
        ],
        [
            "edto",
            "be"
        ],
        [
            "en",
            "e"
        ],
        [
            "st",
            "u"
        ],
        [
            "to",
            "m"
        ],
        [
            "movie",
            "."
        ],
        [
            "ge",
            "ther"
        ],
        [
            "there",
            "'s"
        ],
        [
            "an",
            "no"
        ],
        [
            "proble",
            "m"
        ],
        [
            "produc",
            "tion"
        ],
        [
            "s",
            "ound"
        ],
        [
            "one",
            "of"
        ],
        [
            "le",
            "as"
        ],
        [
            "le",
            "c"
        ],
        [
            "sh",
            "er"
        ],
        [
            "wr",
            "ong"
        ],
        [
            "he",
            "was"
        ],
        [
            "bo",
            "th"
        ],
        [
            "al",
            "e"
        ],
        [
            "s",
            "at"
        ],
        [
            "go",
            "es"
        ],
        [
            "ob",
            "vious"
        ],
        [
            "actor",
            "s"
        ],
        [
            "ist",
            "ic"
        ],
        [
            "ec",
            "k"
        ],
        [
            "ab",
            "sol"
        ],
        [
            "y",
            "et"
        ],
        [
            "un",
            "fortun"
        ],
        [
            "al",
            "way"
        ],
        [
            "tim",
            "es"
        ],
        [
            ",",
            "so"
        ],
        [
            "audi",
            "ence"
        ],
        [
            "c",
            "lo"
        ],
        [
            "they",
            "are"
        ],
        [
            "ire",
            "d"
        ],
        [
            "c",
            "li"
        ],
        [
            "\"",
            "the"
        ],
        [
            "t",
            "v"
        ],
        [
            "de",
            "ad"
        ],
        [
            "esp",
            "ec"
        ],
        [
            "?",
            "?"
        ],
        [
            "gi",
            "ven"
        ],
        [
            "v",
            "d"
        ],
        [
            "s",
            "is"
        ],
        [
            "h",
            "o"
        ],
        [
            "on",
            "es"
        ],
        [
            "u",
            "su"
        ],
        [
            "al",
            "though"
        ],
        [
            "th",
            "in"
        ],
        [
            "b",
            "ed"
        ],
        [
            "b",
            "ook"
        ],
        [
            "o",
            "id"
        ],
        [
            "dis",
            "appoint"
        ],
        [
            "y",
            "p"
        ],
        [
            "m",
            "oney"
        ],
        [
            "pl",
            "ace"
        ],
        [
            "at",
            "ic"
        ],
        [
            "t",
            "it"
        ],
        [
            "il",
            "i"
        ],
        [
            "gu",
            "e"
        ],
        [
            "ent",
            "ire"
        ],
        [
            "w",
            "onder"
        ],
        [
            "th",
            "ought"
        ],
        [
            "\"",
            "."
        ],
        [
            "at",
            "es"
        ],
        [
            "enter",
            "tain"
        ],
        [
            "youn",
            "g"
        ],
        [
            "as",
            "ter"
        ],
        [
            "s",
            "with"
        ],
        [
            "i",
            "am"
        ],
        [
            "edo",
            "es"
        ],
        [
            "f",
            "re"
        ],
        [
            "a",
            "us"
        ],
        [
            "wom",
            "an"
        ],
        [
            "m",
            "ight"
        ],
        [
            "ri",
            "p"
        ],
        [
            "in",
            "tothe"
        ],
        [
            "spec",
            "ial"
        ],
        [
            "that",
            "was"
        ],
        [
            "g",
            "re"
        ],
        [
            "you",
            "'"
        ],
        [
            "i",
            "a"
        ],
        [
            "l",
            "ast"
        ],
        [
            "h",
            "um"
        ],
        [
            "vi",
            "d"
        ],
        [
            "ed",
            "with"
        ],
        [
            "h",
            "ouse"
        ],
        [
            "i'",
            "ve"
        ],
        [
            "ex",
            "cept"
        ],
        [
            "f",
            "an"
        ],
        [
            "n",
            "or"
        ],
        [
            ",the",
            "n"
        ],
        [
            "y",
            "e"
        ],
        [
            "s",
            "as"
        ],
        [
            "about",
            "the"
        ],
        [
            "es",
            "of"
        ],
        [
            "qu",
            "ite"
        ],
        [
            "tof",
            "the"
        ],
        [
            "ing",
            "ly"
        ],
        [
            "is",
            "aw"
        ],
        [
            "you",
            "can"
        ],
        [
            ".",
            "in"
        ],
        [
            "ir",
            "d"
        ],
        [
            "v",
            "ic"
        ],
        [
            "is",
            "not"
        ],
        [
            "ly",
            "wood"
        ],
        [
            "itt",
            "en"
        ],
        [
            "as",
            "c"
        ],
        [
            "p",
            "a"
        ],
        [
            "to",
            "ne"
        ],
        [
            "m",
            "oment"
        ],
        [
            "h",
            "appen"
        ],
        [
            "iffer",
            "ent"
        ],
        [
            "ofc",
            "ourse"
        ],
        [
            "ar",
            "r"
        ],
        [
            "absol",
            "ute"
        ],
        [
            "un",
            "ch"
        ],
        [
            "to",
            "d"
        ],
        [
            "mem",
            "ber"
        ],
        [
            "re",
            "l"
        ],
        [
            "i",
            "would"
        ],
        [
            "ha",
            "ving"
        ],
        [
            "w",
            "a"
        ],
        [
            "espec",
            "ially"
        ],
        [
            "an",
            "ge"
        ],
        [
            "sc",
            "i"
        ],
        [
            "ter",
            "rible"
        ],
        [
            "complete",
            "ly"
        ],
        [
            ".",
            "if"
        ],
        [
            "cl",
            "ass"
        ],
        [
            "tha",
            "the"
        ],
        [
            "amp",
            "ire"
        ],
        [
            "her",
            "o"
        ],
        [
            "p",
            "ain"
        ],
        [
            "s",
            "po"
        ],
        [
            "sid",
            "er"
        ],
        [
            "s",
            "for"
        ],
        [
            "a",
            "ther"
        ],
        [
            "p",
            "u"
        ],
        [
            "gen",
            "er"
        ],
        [
            "under",
            "stand"
        ],
        [
            ".",
            "this"
        ],
        [
            "it",
            ","
        ],
        [
            "ra",
            "ther"
        ],
        [
            "am",
            "es"
        ],
        [
            "de",
            "ath"
        ],
        [
            ",",
            "who"
        ],
        [
            "be",
            "aut"
        ],
        [
            "beli",
            "ev"
        ],
        [
            "fl",
            "ick"
        ],
        [
            "that",
            "it"
        ],
        [
            "c",
            "inem"
        ],
        [
            "i",
            "x"
        ],
        [
            "inv",
            "ol"
        ],
        [
            "some",
            "ofthe"
        ],
        [
            "o",
            "ve"
        ],
        [
            "p",
            "ed"
        ],
        [
            "ever",
            "seen"
        ],
        [
            "s",
            "ad"
        ],
        [
            "re",
            "view"
        ],
        [
            "me",
            "an"
        ],
        [
            "su",
            "m"
        ],
        [
            "the",
            "se"
        ],
        [
            "sh",
            "ip"
        ],
        [
            "al",
            "i"
        ],
        [
            "fam",
            "ily"
        ],
        [
            "v",
            "o"
        ],
        [
            "more",
            "than"
        ],
        [
            "ro",
            "ss"
        ],
        [
            "vel",
            "op"
        ],
        [
            "s",
            ",and"
        ],
        [
            "pre",
            "sent"
        ],
        [
            "s",
            ".the"
        ],
        [
            "sin",
            "ce"
        ],
        [
            "ev",
            "ent"
        ],
        [
            "al",
            "ittle"
        ],
        [
            "of",
            "this"
        ],
        [
            "e",
            "k"
        ],
        [
            "tr",
            "u"
        ],
        [
            "all",
            "ow"
        ],
        [
            "ful",
            "ly"
        ],
        [
            "d",
            "ur"
        ],
        [
            "c",
            "ut"
        ],
        [
            "f",
            "ir"
        ],
        [
            "ton",
            "ly"
        ],
        [
            "performan",
            "ce"
        ],
        [
            "comed",
            "y"
        ],
        [
            "c",
            "oun"
        ],
        [
            "ed",
            "as"
        ],
        [
            "the",
            "d"
        ],
        [
            "comm",
            "end"
        ],
        [
            "ict",
            "ure"
        ],
        [
            "t",
            "ell"
        ],
        [
            "mo",
            "tion"
        ],
        [
            "ec",
            "an"
        ],
        [
            "ro",
            "le"
        ],
        [
            "-",
            "f"
        ],
        [
            "se",
            "ver"
        ],
        [
            "ou",
            "th"
        ],
        [
            "i",
            "v"
        ],
        [
            "dr",
            "am"
        ],
        [
            "app",
            "arent"
        ],
        [
            "h",
            "ap"
        ],
        [
            "s",
            "k"
        ],
        [
            "de",
            "p"
        ],
        [
            "ab",
            "ad"
        ],
        [
            "ed",
            "up"
        ],
        [
            "any",
            "way"
        ],
        [
            "ser",
            "ies"
        ],
        [
            "to",
            "re"
        ],
        [
            "vi",
            "ol"
        ],
        [
            "go",
            "d"
        ],
        [
            "ou",
            "ple"
        ],
        [
            "\"",
            "is"
        ],
        [
            "do",
            "c"
        ],
        [
            "ep",
            "iso"
        ],
        [
            "on",
            "t"
        ],
        [
            "i",
            "had"
        ],
        [
            "'",
            "sh"
        ],
        [
            "to",
            "say"
        ],
        [
            "jo",
            "b"
        ],
        [
            "s",
            "pe"
        ],
        [
            "tha",
            "th"
        ],
        [
            "ag",
            "reat"
        ],
        [
            "of",
            "his"
        ],
        [
            "pre",
            "d"
        ],
        [
            "wr",
            "itten"
        ],
        [
            "!",
            "<br/><br/>"
        ],
        [
            "qu",
            "est"
        ],
        [
            "lef",
            "t"
        ],
        [
            "d",
            "re"
        ],
        [
            "f",
            "ight"
        ],
        [
            "film",
            "."
        ],
        [
            "\"",
            "and"
        ],
        [
            "y",
            "es"
        ],
        [
            "to",
            "om"
        ],
        [
            "el",
            "t"
        ],
        [
            "e",
            "ither"
        ],
        [
            ",",
            "h"
        ],
        [
            "op",
            "en"
        ],
        [
            "cr",
            "ap"
        ],
        [
            "chr",
            "ist"
        ],
        [
            "ing",
            "in"
        ],
        [
            "un",
            "k"
        ],
        [
            "(",
            "and"
        ],
        [
            "read",
            "y"
        ],
        [
            "le",
            "g"
        ],
        [
            "il",
            "ar"
        ],
        [
            "ith",
            "ought"
        ],
        [
            "it",
            "al"
        ],
        [
            "thismovie",
            "was"
        ],
        [
            "b",
            "and"
        ],
        [
            "if",
            "ul"
        ],
        [
            "or",
            "d"
        ],
        [
            "g",
            "ar"
        ],
        [
            "absolute",
            "ly"
        ],
        [
            ".",
            "h"
        ],
        [
            "con",
            "v"
        ],
        [
            "c",
            "ap"
        ],
        [
            "at",
            "r"
        ],
        [
            "ne",
            "y"
        ],
        [
            "the",
            "only"
        ],
        [
            "wom",
            "en"
        ],
        [
            "il",
            "ly"
        ],
        [
            "fol",
            "low"
        ],
        [
            "can",
            "'t"
        ],
        [
            "d",
            "one"
        ],
        [
            "ur",
            "der"
        ],
        [
            "de",
            "velop"
        ],
        [
            "however",
            ","
        ],
        [
            "icul",
            "ous"
        ],
        [
            "r",
            "ing"
        ],
        [
            "g",
            "est"
        ],
        [
            "am",
            "ple"
        ],
        [
            "want",
            "to"
        ],
        [
            "sh",
            "ort"
        ],
        [
            "per",
            "hap"
        ],
        [
            "/",
            "10"
        ],
        [
            "sch",
            "ool"
        ],
        [
            "get",
            "ting"
        ],
        [
            "v",
            "ampire"
        ],
        [
            "ment",
            "ion"
        ],
        [
            "ext",
            "re"
        ],
        [
            "il",
            "ity"
        ],
        [
            "sh",
            "o"
        ],
        [
            "s",
            "out"
        ],
        [
            "en",
            "g"
        ],
        [
            "ing",
            "for"
        ],
        [
            "li",
            "kes"
        ],
        [
            "p",
            "icture"
        ],
        [
            "sto",
            "be"
        ],
        [
            "s",
            "ense"
        ],
        [
            "con",
            "sider"
        ],
        [
            "ious",
            "ly"
        ],
        [
            "pr",
            "om"
        ],
        [
            "?",
            "<br/><br/>"
        ],
        [
            "ot",
            "e"
        ],
        [
            "to",
            "w"
        ],
        [
            "g",
            "or"
        ],
        [
            "c",
            "as"
        ],
        [
            "le",
            "y"
        ],
        [
            "f",
            "us"
        ],
        [
            "a",
            "."
        ],
        [
            "st",
            "y"
        ],
        [
            "thef",
            "act"
        ],
        [
            "i",
            "ves"
        ],
        [
            "bor",
            "ing"
        ],
        [
            "fa",
            "ir"
        ],
        [
            "kill",
            "er"
        ],
        [
            "that",
            "they"
        ],
        [
            "un",
            "d"
        ],
        [
            "a",
            "j"
        ],
        [
            "av",
            "oid"
        ],
        [
            "as",
            "well"
        ],
        [
            "li",
            "g"
        ],
        [
            "l",
            "ot"
        ],
        [
            "tal",
            "ent"
        ],
        [
            "s",
            "w"
        ],
        [
            "to",
            "gether"
        ],
        [
            "s",
            "imply"
        ],
        [
            "c",
            "lear"
        ],
        [
            "the",
            "worst"
        ],
        [
            "ple",
            "as"
        ],
        [
            "s",
            "inthe"
        ],
        [
            "cl",
            "ud"
        ],
        [
            "the",
            "story"
        ],
        [
            "mo",
            "ther"
        ],
        [
            "b",
            "ly"
        ],
        [
            "gr",
            "ound"
        ],
        [
            "ap",
            "e"
        ],
        [
            "l",
            "ar"
        ],
        [
            "every",
            "one"
        ],
        [
            "r",
            "om"
        ],
        [
            "0",
            "'s"
        ],
        [
            "ec",
            "om"
        ],
        [
            "t",
            "ure"
        ],
        [
            ".",
            "ifyou"
        ],
        [
            "ed",
            "id"
        ],
        [
            "c",
            "ess"
        ],
        [
            ".",
            "thisis"
        ],
        [
            "ican",
            "'t"
        ],
        [
            "v",
            "ent"
        ],
        [
            "augh",
            "ter"
        ],
        [
            "watch",
            "ed"
        ],
        [
            "tr",
            "ay"
        ],
        [
            "alway",
            "s"
        ],
        [
            "ha",
            "ves"
        ],
        [
            ".there",
            "is"
        ],
        [
            ".the",
            "n"
        ],
        [
            "ec",
            "ould"
        ],
        [
            "en",
            "n"
        ],
        [
            "unt",
            "il"
        ],
        [
            "on",
            "est"
        ],
        [
            "be",
            "h"
        ],
        [
            "go",
            "re"
        ],
        [
            "hu",
            "man"
        ],
        [
            "ch",
            "o"
        ],
        [
            ",",
            "with"
        ],
        [
            "j",
            "ack"
        ],
        [
            "wal",
            "k"
        ],
        [
            "cer",
            "tain"
        ],
        [
            "s",
            "ide"
        ],
        [
            "c",
            "over"
        ],
        [
            "b",
            "i"
        ],
        [
            "ens",
            "ion"
        ],
        [
            "thin",
            "king"
        ],
        [
            "er",
            "and"
        ],
        [
            "thing",
            "s"
        ],
        [
            "h",
            "alf"
        ],
        [
            "c",
            "reat"
        ],
        [
            "li",
            "f"
        ],
        [
            "m",
            "ess"
        ],
        [
            ",",
            "not"
        ],
        [
            "direc",
            "tion"
        ],
        [
            "su",
            "sp"
        ],
        [
            "cre",
            "di"
        ],
        [
            "see",
            "ing"
        ],
        [
            "com",
            "ment"
        ],
        [
            "quest",
            "ion"
        ],
        [
            "th",
            "or"
        ],
        [
            "des",
            "p"
        ],
        [
            "li",
            "m"
        ],
        [
            "it",
            "ies"
        ],
        [
            "ro",
            "b"
        ],
        [
            "et",
            "c"
        ],
        [
            "c",
            "ur"
        ],
        [
            "po",
            "se"
        ],
        [
            "v",
            "il"
        ],
        [
            "to",
            "ut"
        ],
        [
            "poss",
            "ible"
        ],
        [
            "sto",
            "p"
        ],
        [
            "she",
            "'s"
        ],
        [
            "ed",
            "for"
        ],
        [
            "well",
            ","
        ],
        [
            "s",
            "im"
        ],
        [
            "et",
            "im"
        ],
        [
            "it",
            "self"
        ],
        [
            "app",
            "y"
        ],
        [
            "d",
            "ri"
        ],
        [
            "on",
            "ce"
        ],
        [
            "re",
            "g"
        ],
        [
            "pred",
            "ict"
        ],
        [
            "f",
            "ace"
        ],
        [
            "fa",
            "ther"
        ],
        [
            "in",
            "sp"
        ],
        [
            "id",
            "ent"
        ],
        [
            "ro",
            "om"
        ],
        [
            "wh",
            "er"
        ],
        [
            "a",
            "im"
        ],
        [
            "ke",
            "t"
        ],
        [
            "um",
            "p"
        ],
        [
            "qu",
            "ality"
        ],
        [
            "sul",
            "t"
        ],
        [
            "y",
            "of"
        ],
        [
            "ime",
            "an"
        ],
        [
            "in",
            "his"
        ],
        [
            "u",
            "de"
        ],
        [
            "o",
            "st"
        ],
        [
            "p",
            "ass"
        ],
        [
            "all",
            ","
        ],
        [
            "ak",
            "en"
        ],
        [
            "would",
            "have"
        ],
        [
            "hol",
            "lywood"
        ],
        [
            "s",
            "ave"
        ],
        [
            "wa",
            "it"
        ],
        [
            "ofthe",
            "film"
        ],
        [
            "lo",
            "c"
        ],
        [
            "is",
            "that"
        ],
        [
            "ou",
            "p"
        ],
        [
            ".",
            "as"
        ],
        [
            "part",
            "icul"
        ],
        [
            "thes",
            "am"
        ],
        [
            "f",
            "ic"
        ],
        [
            "i",
            "er"
        ],
        [
            "al",
            "s"
        ],
        [
            "ad",
            "m"
        ],
        [
            "ith",
            "as"
        ],
        [
            "r",
            "."
        ],
        [
            "iz",
            "e"
        ],
        [
            "ig",
            "u"
        ],
        [
            "tim",
            "e."
        ],
        [
            "su",
            "c"
        ],
        [
            "p",
            "ow"
        ],
        [
            "extre",
            "me"
        ],
        [
            "like",
            "the"
        ],
        [
            "f",
            "ac"
        ],
        [
            "pl",
            "o"
        ],
        [
            "dialo",
            "gue"
        ],
        [
            "beg",
            "inn"
        ],
        [
            "w",
            "ife"
        ],
        [
            "beaut",
            "iful"
        ],
        [
            "m",
            "ich"
        ],
        [
            "b",
            "en"
        ],
        [
            "sel",
            "ves"
        ],
        [
            "in",
            "a"
        ],
        [
            "try",
            "ingto"
        ],
        [
            "des",
            "er"
        ],
        [
            ".",
            "what"
        ],
        [
            "mis",
            "s"
        ],
        [
            "ch",
            "é"
        ],
        [
            "at",
            "ur"
        ],
        [
            "br",
            "ing"
        ],
        [
            "spo",
            "il"
        ],
        [
            "ear",
            "ly"
        ],
        [
            "n",
            "am"
        ],
        [
            "po",
            "p"
        ],
        [
            "be",
            "l"
        ],
        [
            "thisfilm",
            "is"
        ],
        [
            "es",
            "are"
        ],
        [
            "'",
            "ve"
        ],
        [
            "ofthe",
            "m"
        ],
        [
            "wh",
            "e"
        ],
        [
            "h",
            "ar"
        ],
        [
            "j",
            "u"
        ],
        [
            "vide",
            "o"
        ],
        [
            "es",
            "ome"
        ],
        [
            "v",
            "ol"
        ],
        [
            ".",
            "itwas"
        ],
        [
            "d",
            "ist"
        ],
        [
            ".",
            "itis"
        ],
        [
            "qu",
            "it"
        ],
        [
            "to",
            "get"
        ],
        [
            "thes",
            "ame"
        ],
        [
            "f",
            "oot"
        ],
        [
            "-",
            "the"
        ],
        [
            "in",
            "ess"
        ],
        [
            "tot",
            "ally"
        ],
        [
            "act",
            "ress"
        ],
        [
            "ed",
            "that"
        ],
        [
            "ed",
            "out"
        ],
        [
            "stu",
            "ff"
        ],
        [
            "ar",
            "i"
        ],
        [
            "l",
            "ing"
        ],
        [
            "was",
            "n't"
        ],
        [
            "de",
            "fin"
        ],
        [
            "al",
            "ready"
        ],
        [
            "e",
            "as"
        ],
        [
            "b",
            "it"
        ],
        [
            "g",
            "y"
        ],
        [
            "hel",
            "p"
        ],
        [
            "i'",
            "d"
        ],
        [
            "ful",
            "l"
        ],
        [
            "e",
            "ach"
        ],
        [
            "fe",
            "ature"
        ],
        [
            "idid",
            "n't"
        ],
        [
            "year",
            "s"
        ],
        [
            ",",
            "bu"
        ],
        [
            "p",
            "ri"
        ],
        [
[...]
